{
  "version": "1.0",
  "truncation": null,
  "padding": null,
  "added_tokens": [
    {
      "id": 0,
      "content": "<|endoftext|>",
      "single_word": false,
      "lstrip": false,
      "rstrip": false,
      "normalized": false,
      "special": true
    },
    {
      "id": 1,
      "content": "<|context|>",
      "single_word": false,
      "lstrip": false,
      "rstrip": false,
      "normalized": false,
      "special": true
    },
    {
      "id": 2,
      "content": "<|user|>",
      "single_word": false,
      "lstrip": false,
      "rstrip": false,
      "normalized": false,
      "special": true
    },
    {
      "id": 3,
      "content": "<|companion|>",
      "single_word": false,
      "lstrip": false,
      "rstrip": false,
      "normalized": false,
      "special": true
    },
    {
      "id": 4,
      "content": "<|end|>",
      "single_word": false,
      "lstrip": false,
      "rstrip": false,
      "normalized": false,
      "special": true
    }
  ],
  "normalizer": {
    "type": "Sequence",
    "normalizers": [
      {
        "type": "NFKC"
      },
      {
        "type": "Lowercase"
      }
    ]
  },
  "pre_tokenizer": {
    "type": "ByteLevel",
    "add_prefix_space": false,
    "trim_offsets": true,
    "use_regex": true
  },
  "post_processor": {
    "type": "TemplateProcessing",
    "single": [
      {
        "Sequence": {
          "id": "A",
          "type_id": 0
        }
      }
    ],
    "pair": [
      {
        "Sequence": {
          "id": "A",
          "type_id": 0
        }
      },
      {
        "Sequence": {
          "id": "B",
          "type_id": 1
        }
      }
    ],
    "special_tokens": {}
  },
  "decoder": null,
  "model": {
    "type": "BPE",
    "dropout": null,
    "unk_token": null,
    "continuing_subword_prefix": null,
    "end_of_word_suffix": null,
    "fuse_unk": false,
    "byte_fallback": false,
    "ignore_merges": false,
    "vocab": {
      "<|endoftext|>": 0,
      "<|context|>": 1,
      "<|user|>": 2,
      "<|companion|>": 3,
      "<|end|>": 4,
      "!": 5,
      "\"": 6,
      "#": 7,
      "$": 8,
      "%": 9,
      "&": 10,
      "'": 11,
      "(": 12,
      ")": 13,
      "*": 14,
      "+": 15,
      ",": 16,
      "-": 17,
      ".": 18,
      "/": 19,
      "0": 20,
      "1": 21,
      "2": 22,
      "3": 23,
      "4": 24,
      "5": 25,
      "6": 26,
      "7": 27,
      "8": 28,
      "9": 29,
      ":": 30,
      ";": 31,
      "<": 32,
      "=": 33,
      ">": 34,
      "?": 35,
      "@": 36,
      "[": 37,
      "\\": 38,
      "]": 39,
      "^": 40,
      "_": 41,
      "`": 42,
      "a": 43,
      "b": 44,
      "c": 45,
      "d": 46,
      "e": 47,
      "f": 48,
      "g": 49,
      "h": 50,
      "i": 51,
      "j": 52,
      "k": 53,
      "l": 54,
      "m": 55,
      "n": 56,
      "o": 57,
      "p": 58,
      "q": 59,
      "r": 60,
      "s": 61,
      "t": 62,
      "u": 63,
      "v": 64,
      "w": 65,
      "x": 66,
      "y": 67,
      "z": 68,
      "{": 69,
      "|": 70,
      "}": 71,
      "~": 72,
      "¡": 73,
      "¢": 74,
      "£": 75,
      "¤": 76,
      "¥": 77,
      "¦": 78,
      "§": 79,
      "¨": 80,
      "©": 81,
      "ª": 82,
      "«": 83,
      "¬": 84,
      "®": 85,
      "¯": 86,
      "°": 87,
      "±": 88,
      "²": 89,
      "³": 90,
      "´": 91,
      "µ": 92,
      "¶": 93,
      "·": 94,
      "¸": 95,
      "¹": 96,
      "º": 97,
      "»": 98,
      "¼": 99,
      "½": 100,
      "¾": 101,
      "¿": 102,
      "Â": 103,
      "Ã": 104,
      "Ä": 105,
      "Å": 106,
      "Æ": 107,
      "Ç": 108,
      "È": 109,
      "É": 110,
      "Ê": 111,
      "Ë": 112,
      "Ì": 113,
      "Í": 114,
      "Î": 115,
      "Ï": 116,
      "Ð": 117,
      "Ñ": 118,
      "Ò": 119,
      "Ó": 120,
      "Ô": 121,
      "Õ": 122,
      "Ö": 123,
      "×": 124,
      "Ø": 125,
      "Ù": 126,
      "Ú": 127,
      "Û": 128,
      "Ü": 129,
      "Ý": 130,
      "ß": 131,
      "à": 132,
      "á": 133,
      "â": 134,
      "ã": 135,
      "ä": 136,
      "å": 137,
      "æ": 138,
      "ç": 139,
      "è": 140,
      "é": 141,
      "ê": 142,
      "ë": 143,
      "ì": 144,
      "í": 145,
      "î": 146,
      "ï": 147,
      "ð": 148,
      "ó": 149,
      "ô": 150,
      "Ā": 151,
      "ā": 152,
      "Ă": 153,
      "ă": 154,
      "Ą": 155,
      "ą": 156,
      "Ć": 157,
      "ć": 158,
      "Ĉ": 159,
      "ĉ": 160,
      "Ċ": 161,
      "č": 162,
      "Ď": 163,
      "Đ": 164,
      "Ē": 165,
      "ē": 166,
      "Ĕ": 167,
      "Ė": 168,
      "Ě": 169,
      "ě": 170,
      "Ġ": 171,
      "ġ": 172,
      "Ģ": 173,
      "ģ": 174,
      "Ĥ": 175,
      "ĥ": 176,
      "Ħ": 177,
      "ħ": 178,
      "Ĩ": 179,
      "ĩ": 180,
      "Ī": 181,
      "ī": 182,
      "Ĭ": 183,
      "ĭ": 184,
      "Į": 185,
      "į": 186,
      "İ": 187,
      "ı": 188,
      "Ĳ": 189,
      "ĳ": 190,
      "Ĵ": 191,
      "ĵ": 192,
      "Ķ": 193,
      "ķ": 194,
      "ĸ": 195,
      "Ĺ": 196,
      "ĺ": 197,
      "Ļ": 198,
      "ļ": 199,
      "Ľ": 200,
      "ľ": 201,
      "Ŀ": 202,
      "ŀ": 203,
      "Ł": 204,
      "ł": 205,
      "Ń": 206,
      "Ġt": 207,
      "Ġa": 208,
      "in": 209,
      "re": 210,
      "Ġth": 211,
      "Ġs": 212,
      "Ġi": 213,
      "ou": 214,
      "on": 215,
      "at": 216,
      "Ġw": 217,
      "er": 218,
      "ing": 219,
      "čĊ": 220,
      "Ġc": 221,
      "en": 222,
      "es": 223,
      "Ġm": 224,
      "or": 225,
      "Ġb": 226,
      "nd": 227,
      "Ġf": 228,
      "al": 229,
      "Ġd": 230,
      "Ġp": 231,
      "Ġthe": 232,
      "Ġh": 233,
      "Ġto": 234,
      "Ġy": 235,
      "an": 236,
      "it": 237,
      "Ġyou": 238,
      "Ġo": 239,
      "Ġand": 240,
      "Ġl": 241,
      "ed": 242,
      "st": 243,
      "el": 244,
      "Ġin": 245,
      "ar": 246,
      "ion": 247,
      "ic": 248,
      "Ġg": 249,
      "om": 250,
      "Ġe": 251,
      "Ġof": 252,
      "Ġre": 253,
      "Ġn": 254,
      "et": 255,
      "ve": 256,
      "is": 257,
      "le": 258,
      "ent": 259,
      "Ġit": 260,
      "ow": 261,
      "ct": 262,
      "ly": 263,
      "Ġwh": 264,
      "as": 265,
      "Ġbe": 266,
      "ro": 267,
      "Ġthat": 268,
      "th": 269,
      "Ġu": 270,
      "ay": 271,
      "ll": 272,
      "Ġst": 273,
      "Ġfor": 274,
      "ch": 275,
      "id": 276,
      "ig": 277,
      "ation": 278,
      "ut": 279,
      "ke": 280,
      "ver": 281,
      "ot": 282,
      "Ġha": 283,
      "'s": 284,
      "ce": 285,
      "out": 286,
      "Ġon": 287,
      "--": 288,
      "im": 289,
      "ith": 290,
      "ra": 291,
      "se": 292,
      "Ġcon": 293,
      "Ġwe": 294,
      "Ġme": 295,
      "ol": 296,
      "Ġj": 297,
      "Ġwith": 298,
      "Ġis": 299,
      "Ġli": 300,
      "Ġyour": 301,
      "Ġan": 302,
      "ul": 303,
      "ust": 304,
      "Ġex": 305,
      "Ġsu": 306,
      "Ġdo": 307,
      "Ġcan": 308,
      "Ġso": 309,
      "ally": 310,
      "il": 311,
      "Ġhe": 312,
      "Ġpro": 313,
      "pp": 314,
      "Ġor": 315,
      "od": 316,
      "ir": 317,
      "ess": 318,
      "ri": 319,
      "Ġas": 320,
      "igh": 321,
      "Ġab": 322,
      "ad": 323,
      "Ġk": 324,
      "Ġde": 325,
      "Ġcom": 326,
      "ant": 327,
      "'m": 328,
      "Ġgo": 329,
      "Ġne": 330,
      "ur": 331,
      "ers": 332,
      "ate": 333,
      "Ġmy": 334,
      "am": 335,
      "ect": 336,
      "Ġthis": 337,
      "'t": 338,
      "âĢ": 339,
      "ld": 340,
      "Ġjust": 341,
      "ore": 342,
      "Ġch": 343,
      "ter": 344,
      "Ġal": 345,
      "Ġen": 346,
      "ci": 347,
      "Ġbut": 348,
      "Ġwhat": 349,
      "ight": 350,
      "res": 351,
      "ab": 352,
      "Ġhave": 353,
      "ment": 354,
      "ain": 355,
      "qu": 356,
      "us": 357,
      "Ġare": 358,
      "op": 359,
      "Ġr": 360,
      "Ġsh": 361,
      "Ġsom": 362,
      "Ġfe": 363,
      "Ġv": 364,
      "ell": 365,
      "ity": 366,
      "ive": 367,
      "mp": 368,
      "ies": 369,
      "ge": 370,
      "now": 371,
      "Ġse": 372,
      "king": 373,
      "Ġlike": 374,
      "Ġabout": 375,
      "---": 376,
      "Ġwor": 377,
      "ep": 378,
      "os": 379,
      "gh": 380,
      "ould": 381,
      "iv": 382,
      "Ġknow": 383,
      "ere": 384,
      "est": 385,
      "ff": 386,
      "Ġnot": 387,
      "our": 388,
      "ill": 389,
      "rom": 390,
      "Ġat": 391,
      "ea": 392,
      "rou": 393,
      "ist": 394,
      "un": 395,
      "Ġlo": 396,
      "Ġma": 397,
      "ions": 398,
      "art": 399,
      "end": 400,
      "Ġhow": 401,
      "ort": 402,
      "ck": 403,
      "Ġ(": 404,
      "Ġint": 405,
      "ry": 406,
      "Ġwas": 407,
      "'re": 408,
      "ely": 409,
      "âĢĻ": 410,
      "Ġdon": 411,
      "ure": 412,
      "Ġexp": 413,
      "Ġfeel": 414,
      "reat": 415,
      "Ġthan": 416,
      "Ġreally": 417,
      "Ġall": 418,
      "Ġout": 419,
      "ations": 420,
      "and": 421,
      "Ġdi": 422,
      "are": 423,
      "nt": 424,
      "Ġad": 425,
      "Ġsp": 426,
      "Ġup": 427,
      "Ġle": 428,
      "iz": 429,
      "em": 430,
      "Ġany": 431,
      "ard": 432,
      "eth": 433,
      "Ġby": 434,
      "Ġfrom": 435,
      "Ġpl": 436,
      "Ġtim": 437,
      "ine": 438,
      "Ġif": 439,
      "ks": 440,
      "Ġcomp": 441,
      "ud": 442,
      "ical": 443,
      "Ġbeen": 444,
      "all": 445,
      "act": 446,
      "um": 447,
      "one": 448,
      "very": 449,
      "Ġthey": 450,
      "Ġget": 451,
      "ind": 452,
      "Ġsome": 453,
      "Ġwant": 454,
      "Ġhel": 455,
      "ther": 456,
      "ous": 457,
      "Ġhelp": 458,
      "if": 459,
      "ru": 460,
      "Ġdis": 461,
      "ap": 462,
      "Ġapp": 463,
      "Ġtime": 464,
      "ip": 465,
      "Ġthin": 466,
      "Ġthere": 467,
      "Ġus": 468,
      "Ġimp": 469,
      "Ġno": 470,
      "og": 471,
      "ays": 472,
      "Ġcont": 473,
      "Ġwhen": 474,
      "Ġwell": 475,
      "cc": 476,
      "Ġmore": 477,
      "ong": 478,
      "Ġfo": 479,
      "Ġres": 480,
      "ings": 481,
      "ress": 482,
      "ance": 483,
      "ound": 484,
      "ces": 485,
      "ese": 486,
      "ult": 487,
      "Ġta": 488,
      "able": 489,
      "thing": 490,
      "ble": 491,
      "ie": 492,
      "Ġev": 493,
      "ough": 494,
      "Ġund": 495,
      "Ġam": 496,
      "Ġmo": 497,
      "Ġun": 498,
      "Ġpre": 499,
      "Ġinc": 500,
      "Ġneed": 501,
      "'ve": 502,
      "ag": 503,
      "Ġthese": 504,
      "Ġgood": 505,
      "Ġyea": 506,
      "elf": 507,
      "Ġyeah": 508,
      "ial": 509,
      "Ġwill": 510,
      "Ġunder": 511,
      "Ġtheir": 512,
      "ence": 513,
      "du": 514,
      "ating": 515,
      "Ġevery": 516,
      "Ġbet": 517,
      "pt": 518,
      "Ġover": 519,
      "Ġcl": 520,
      "'ll": 521,
      "Ġgreat": 522,
      "ice": 523,
      "age": 524,
      "ide": 525,
      "Ġone": 526,
      "orm": 527,
      "ans": 528,
      "Ġthink": 529,
      "ach": 530,
      "ving": 531,
      "ack": 532,
      "ated": 533,
      "Ġco": 534,
      "vel": 535,
      "Ġwork": 536,
      "ful": 537,
      "rough": 538,
      "Ġtoo": 539,
      "Ġthem": 540,
      "au": 541,
      "Ġact": 542,
      "ast": 543,
      "Ġour": 544,
      "Ġte": 545,
      "Ġpe": 546,
      "Ġsee": 547,
      "Ġgoing": 548,
      "Ġbec": 549,
      "ting": 550,
      "Ġmake": 551,
      "Ġnow": 552,
      "ens": 553,
      "riend": 554,
      "Ġrel": 555,
      "Ġcons": 556,
      "so": 557,
      "Ġman": 558,
      "Ġmu": 559,
      "Ġhapp": 560,
      "ign": 561,
      "Ġwould": 562,
      "Ġper": 563,
      "Ġthrough": 564,
      "Ġ1": 565,
      "Ġinto": 566,
      "Ġqu": 567,
      "ary": 568,
      "Ġcould": 569,
      "Ġmuch": 570,
      "Ġlet": 571,
      "ose": 572,
      "Ġpeop": 573,
      "ile": 574,
      "Ġag": 575,
      "Ġpeople": 576,
      "ition": 577,
      "ome": 578,
      "Ġfriend": 579,
      "les": 580,
      "Ġgu": 581,
      "Ġmay": 582,
      "Ġbo": 583,
      "fe": 584,
      "Ġdid": 585,
      "ities": 586,
      "self": 587,
      "Ġcomm": 588,
      "alth": 589,
      "ways": 590,
      "Ġpart": 591,
      "Ġother": 592,
      "Ġhere": 593,
      "stand": 594,
      "ors": 595,
      "ue": 596,
      "Ġdiff": 597,
      "ase": 598,
      "ath": 599,
      "Ġloo": 600,
      "ish": 601,
      "Ġfa": 602,
      "ass": 603,
      "ang": 604,
      "Ġel": 605,
      "ents": 606,
      "Ġar": 607,
      "Ġalways": 608,
      "cial": 609,
      "Ġacc": 610,
      "Ġwho": 611,
      "ich": 612,
      "ething": 613,
      "Ġke": 614,
      "Ġsomething": 615,
      "..": 616,
      "ause": 617,
      "ual": 618,
      "Ġlot": 619,
      "Ġhealth": 620,
      "ract": 621,
      "Ġtry": 622,
      "round": 623,
      "Ġsure": 624,
      "Ġright": 625,
      "lo": 626,
      "Ġunderstand": 627,
      "Ġhas": 628,
      "ments": 629,
      "Ġstart": 630,
      "arn": 631,
      "Ġsa": 632,
      "Ġtr": 633,
      "we": 634,
      "Ġ2": 635,
      "Ġro": 636,
      "cess": 637,
      "form": 638,
      "Ġinter": 639,
      "Ġph": 640,
      "Ġsy": 641,
      "Ġnew": 642,
      "Ġsuch": 643,
      "ari": 644,
      "Ġpo": 645,
      "Ġind": 646,
      "Ġpers": 647,
      "be": 648,
      "Ġid": 649,
      "Ġtra": 650,
      "Ġthings": 651,
      "olog": 652,
      "eri": 653,
      "Ġdef": 654,
      "Ġway": 655,
      "Ġlife": 656,
      "Ġoff": 657,
      "Ġrem": 658,
      "Ġeff": 659,
      "ire": 660,
      "ys": 661,
      "Ġthanks": 662,
      "ĠâĢ": 663,
      "Ġtal": 664,
      "Ġalso": 665,
      "Ġsound": 666,
      "ms": 667,
      "ear": 668,
      "ber": 669,
      "ility": 670,
      "ics": 671,
      "Ġrec": 672,
      "uring": 673,
      "Ġreg": 674,
      "Ġeven": 675,
      "Ġpos": 676,
      "ater": 677,
      "Ġthen": 678,
      "ame": 679,
      "Ġhey": 680,
      "ild": 681,
      "Ġinv": 682,
      "ise": 683,
      "Ġdes": 684,
      "Ġdiffere": 685,
      "Ġwhile": 686,
      "Ġstud": 687,
      "Ġem": 688,
      "Ġlearn": 689,
      "ves": 690,
      "ction": 691,
      "Ġdoing": 692,
      "tain": 693,
      "ond": 694,
      "Ġtake": 695,
      ").": 696,
      "ular": 697,
      "fore": 698,
      "ts": 699,
      "lic": 700,
      "cus": 701,
      "Ġbecause": 702,
      "Ġsc": 703,
      "ace": 704,
      "Ġcare": 705,
      "Ġwhich": 706,
      "Ġspe": 707,
      "row": 708,
      "Ġhad": 709,
      "Ġthank": 710,
      "Ġday": 711,
      "ite": 712,
      "ory": 713,
      "Ġback": 714,
      "Ġdec": 715,
      "==": 716,
      "Ġfun": 717,
      "step": 718,
      "Ġadd": 719,
      "Ġjo": 720,
      "Ġwhere": 721,
      "pport": 722,
      "als": 723,
      "Ġrep": 724,
      "ates": 725,
      "arch": 726,
      "Ġ-": 727,
      "Ġfind": 728,
      "Ġexpl": 729,
      "Ġra": 730,
      "Ġsounds": 731,
      "ures": 732,
      "Ġwere": 733,
      "Ġinst": 734,
      "Ġanything": 735,
      "Ġkeep": 736,
      "Ġbetter": 737,
      "ount": 738,
      "Ġaf": 739,
      "per": 740,
      "ons": 741,
      "ced": 742,
      "pect": 743,
      "Ġshould": 744,
      "Ġgl": 745,
      "ord": 746,
      "ize": 747,
      "ether": 748,
      "Ġok": 749,
      "Ġthough": 750,
      "ately": 751,
      "Ġbeing": 752,
      "av": 753,
      "ential": 754,
      "ib": 755,
      "day": 756,
      "Ġgen": 757,
      "Ġstr": 758,
      "Ġdefin": 759,
      "Ġac": 760,
      "Ġatt": 761,
      "ily": 762,
      "kes": 763,
      "Ġwhy": 764,
      "rit": 765,
      "Ġim": 766,
      "ia": 767,
      "ward": 768,
      "Ġlove": 769,
      "cy": 770,
      "ering": 771,
      "00": 772,
      "own": 773,
      "ative": 774,
      "hip": 775,
      "Ġprov": 776,
      "vers": 777,
      "velop": 778,
      "Ġfir": 779,
      "Ġincl": 780,
      "Ġsch": 781,
      "Ġproble": 782,
      "Ġits": 783,
      "Ġcol": 784,
      "ree": 785,
      "Ġher": 786,
      "Ġsm": 787,
      "Ġmed": 788,
      "Ġbefore": 789,
      "Ġdevelop": 790,
      "Ġyear": 791,
      "Ġokay": 792,
      "Ġsk": 793,
      "ness": 794,
      "ween": 795,
      "Ġfin": 796,
      "Ġshe": 797,
      "Ġperson": 798,
      "Ġagain": 799,
      "Ġbetween": 800,
      "ible": 801,
      "Ġbel": 802,
      "ty": 803,
      "ific": 804,
      "ject": 805,
      "ved": 806,
      "Ġdoes": 807,
      "pl": 808,
      "Ġpr": 809,
      "Ġins": 810,
      "Ġ\"": 811,
      "Ġob": 812,
      "Ġpract": 813,
      "ick": 814,
      "ning": 815,
      "Ġaround": 816,
      "Ġhigh": 817,
      "Ġadv": 818,
      "Ġbu": 819,
      "search": 820,
      "Ġdifferent": 821,
      "its": 822,
      "ne": 823,
      "ues": 824,
      "Ġinclud": 825,
      "ically": 826,
      "xt": 827,
      "Ġresearch": 828,
      "ph": 829,
      "Ġimport": 830,
      "Ġhard": 831,
      "ually": 832,
      "Ġcommun": 833,
      "Ġlit": 834,
      "amp": 835,
      "Ġafter": 836,
      "Ġmean": 837,
      "ines": 838,
      "Ġexperi": 839,
      "Ġfirst": 840,
      "ange": 841,
      "cer": 842,
      "chn": 843,
      "Ġvari": 844,
      "Ġfl": 845,
      "iqu": 846,
      "ody": 847,
      "Ġmost": 848,
      "Ġsign": 849,
      "int": 850,
      "Ġyourself": 851,
      "Ġdefinit": 852,
      "Ġtell": 853,
      "Ġduring": 854,
      "cing": 855,
      "erg": 856,
      "Ġtechn": 857,
      "Ġeverything": 858,
      "Ġdown": 859,
      "Ġstep": 860,
      "Ġboth": 861,
      "Ġaw": 862,
      "Ġval": 863,
      "olut": 864,
      "wn": 865,
      "Ġgra": 866,
      "Ġtalk": 867,
      "yp": 868,
      "Ġsor": 869,
      "Ġtrans": 870,
      "Ġeach": 871,
      "Ġsur": 872,
      "ten": 873,
      "Ġsorry": 874,
      "stem": 875,
      "Ġsim": 876,
      "Ġconsid": 877,
      "Ġlong": 878,
      "Ġinf": 879,
      "rib": 880,
      "Ġtw": 881,
      "Ġlook": 882,
      "Ġdefinitely": 883,
      "cept": 884,
      "Ġglad": 885,
      "Ġpat": 886,
      "Ġprocess": 887,
      "Ġmod": 888,
      "Ġemp": 889,
      "Ġfriends": 890,
      "Ġfam": 891,
      "ying": 892,
      "Ġreal": 893,
      "tle": 894,
      "Ġprom": 895,
      "ased": 896,
      "Ġmight": 897,
      "Ġread": 898,
      "Ġincre": 899,
      "Ġwithin": 900,
      "Ġhappy": 901,
      "Ġmain": 902,
      "Ġappro": 903,
      "Ġref": 904,
      "ark": 905,
      "Ġsub": 906,
      "wh": 907,
      "Ġnever": 908,
      "con": 909,
      "iss": 910,
      "Ġworld": 911,
      "ak": 912,
      "Ġconf": 913,
      "gg": 914,
      "ric": 915,
      "Ġass": 916,
      "Ġtoday": 917,
      "Ġ3": 918,
      "Ġcle": 919,
      "Ġsystem": 920,
      "Ġbest": 921,
      "ever": 922,
      "ren": 923,
      "ieve": 924,
      "Ġonly": 925,
      "),": 926,
      "Ġcal": 927,
      "Ġhappen": 928,
      "jo": 929,
      "ruct": 930,
      "Ġtog": 931,
      "Ġtogether": 932,
      "Ġcour": 933,
      "ns": 934,
      "Ġfood": 935,
      "Ġeng": 936,
      "Ġthose": 937,
      "Ġset": 938,
      "ices": 939,
      "Ġeffect": 940,
      "ade": 941,
      "ower": 942,
      "ional": 943,
      "Ġmaybe": 944,
      "Ġprodu": 945,
      "reci": 946,
      "Ġcar": 947,
      "Ġstill": 948,
      "Ġ&": 949,
      "Ġmany": 950,
      "Ġsay": 951,
      "Ġav": 952,
      "Ġappreci": 953,
      "Ġfeeling": 954,
      "Ġdet": 955,
      "Ġfocus": 956,
      "Ġmon": 957,
      "Ġwithout": 958,
      "gan": 959,
      "Ġenjo": 960,
      "ural": 961,
      "ail": 962,
      "Ġpot": 963,
      "Ġimportant": 964,
      "Ġunderstanding": 965,
      "ivid": 966,
      "Ġresp": 967,
      "leep": 968,
      "erest": 969,
      "ros": 970,
      "Ġend": 971,
      "eng": 972,
      "Ġplay": 973,
      "Ġproblem": 974,
      "etim": 975,
      "Ġlead": 976,
      "Ġexc": 977,
      "Ġbody": 978,
      "ational": 979,
      "Ġuse": 980,
      "erm": 981,
      "Ġweight": 982,
      "Ġmat": 983,
      "lex": 984,
      "wor": 985,
      "Ġsupport": 986,
      "ici": 987,
      "Ġpol": 988,
      "Ġinterest": 989,
      "Ġvery": 990,
      "Ġlea": 991,
      "Ġdep": 992,
      "ently": 993,
      "Ġfu": 994,
      "Ġdidn": 995,
      "ub": 996,
      "Ġgrow": 997,
      "Ġchall": 998,
      "Ġpres": 999,
      "ection": 1000,
      "Ġown": 1001,
      "...": 1002,
      "oc": 1003,
      "Ġmyself": 1004,
      "Ġspeci": 1005,
      "Ġgot": 1006,
      "Ġtwo": 1007,
      "Ġdist": 1008,
      "Ġser": 1009,
      "Ġmin": 1010,
      "Ġwee": 1011,
      "Ġsometim": 1012,
      "ribut": 1013,
      "Ġrequ": 1014,
      "Ġimpro": 1015,
      "ool": 1016,
      "te": 1017,
      "ety": 1018,
      "old": 1019,
      "Ġlittle": 1020,
      "Ġtyp": 1021,
      "ology": 1022,
      "Ġwanted": 1023,
      "Ġfact": 1024,
      "llow": 1025,
      "Ġca": 1026,
      "Ġactiv": 1027,
      "Ġbre": 1028,
      "Ġgetting": 1029,
      "ized": 1030,
      "Ġcome": 1031,
      "Ġrelations": 1032,
      "ental": 1033,
      "ĠâĢĵ": 1034,
      "Ġmus": 1035,
      "Ġext": 1036,
      "Ġform": 1037,
      "Ġbeh": 1038,
      "Ġconsider": 1039,
      "Ġpartic": 1040,
      "itive": 1041,
      "Ġhome": 1042,
      "Ġyes": 1043,
      "Ġcourse": 1044,
      "Ġmaking": 1045,
      "Ġjob": 1046,
      "Ġseem": 1047,
      "Ġsleep": 1048,
      "Ġable": 1049,
      "Ġthinking": 1050,
      "Ġprog": 1051,
      "Ġusing": 1052,
      "Ġfollow": 1053,
      "Ġhand": 1054,
      ".,": 1055,
      "Ġopt": 1056,
      "Ġequ": 1057,
      "Ġsin": 1058,
      "Ġyears": 1059,
      "Ġindivid": 1060,
      "ining": 1061,
      "ories": 1062,
      "Ġinform": 1063,
      "Ġplan": 1064,
      "Ġmade": 1065,
      "Ġhi": 1066,
      "ead": 1067,
      "vir": 1068,
      "uc": 1069,
      "ives": 1070,
      "Ġwa": 1071,
      "Ġens": 1072,
      "red": 1073,
      "Ġschool": 1074,
      "ember": 1075,
      "get": 1076,
      "Ġnat": 1077,
      "Ġindividual": 1078,
      "ability": 1079,
      "Ġbr": 1080,
      "Ġappreciate": 1081,
      "idel": 1082,
      "Ġhum": 1083,
      "Ġpain": 1084,
      "Ġrelationship": 1085,
      "Ġent": 1086,
      "Ġtreat": 1087,
      "ft": 1088,
      "Ġchild": 1089,
      "Ġanal": 1090,
      "ĠĠ": 1091,
      "Ġmind": 1092,
      "ateg": 1093,
      "Ġsomeone": 1094,
      "Ġmakes": 1095,
      "com": 1096,
      "Ġphys": 1097,
      "ention": 1098,
      "Ġsometimes": 1099,
      "Ġconst": 1100,
      "Ġfew": 1101,
      "Ġear": 1102,
      "Ġfound": 1103,
      "Ġprev": 1104,
      "viron": 1105,
      "Ġhop": 1106,
      "Ġinvol": 1107,
      "ences": 1108,
      "Ġhowever": 1109,
      "Ġorgan": 1110,
      "Ġprof": 1111,
      "Ġenviron": 1112,
      "Ġsame": 1113,
      "Ġop": 1114,
      "Ġelse": 1115,
      "Ġworking": 1116,
      "Ġsec": 1117,
      "oss": 1118,
      "ism": 1119,
      "Ġbl": 1120,
      "Ġsit": 1121,
      "Ġshow": 1122,
      "ality": 1123,
      "Ġwater": 1124,
      "az": 1125,
      "Ġtrying": 1126,
      "Ġoften": 1127,
      "ron": 1128,
      "ict": 1129,
      "Ġthought": 1130,
      "ases": 1131,
      "co": 1132,
      "Ġcap": 1133,
      "Ġhis": 1134,
      "izing": 1135,
      "Ġallow": 1136,
      "ather": 1137,
      "other": 1138,
      "Ġposs": 1139,
      "Ġdel": 1140,
      "ling": 1141,
      "Ġbus": 1142,
      "ively": 1143,
      "Ġsince": 1144,
      "Ġsocial": 1145,
      "Ġtru": 1146,
      "arm": 1147,
      "Ġcontro": 1148,
      "Ġident": 1149,
      "Ġfamily": 1150,
      "ene": 1151,
      "Ġbelieve": 1152,
      "thers": 1153,
      "Ġnum": 1154,
      "ited": 1155,
      "ross": 1156,
      "Ġcho": 1157,
      "Ġlevel": 1158,
      "ps": 1159,
      "ances": 1160,
      "Ġoh": 1161,
      "led": 1162,
      "Ġused": 1163,
      "Ġmaintain": 1164,
      "Ġremember": 1165,
      "Ġdem": 1166,
      "rain": 1167,
      "Ġsl": 1168,
      "Ġchange": 1169,
      "Ġcult": 1170,
      "oid": 1171,
      "Ġ5": 1172,
      "Ġgener": 1173,
      "Ġvarious": 1174,
      "Ġaff": 1175,
      "lect": 1176,
      "mpt": 1177,
      "Ġkind": 1178,
      "ok": 1179,
      "Ġiss": 1180,
      "Ġbi": 1181,
      "Ġed": 1182,
      "20": 1183,
      "Ġchar": 1184,
      "Ġplace": 1185,
      "ac": 1186,
      "Ġstay": 1187,
      "Ġspecif": 1188,
      "let": 1189,
      "iew": 1190,
      "Ġcreat": 1191,
      "Ġresult": 1192,
      "Ġothers": 1193,
      "ared": 1194,
      "Ġquest": 1195,
      "Ġmove": 1196,
      "ense": 1197,
      "erc": 1198,
      "ired": 1199,
      "Ġart": 1200,
      "Ġvis": 1201,
      "Ġfi": 1202,
      "Ġredu": 1203,
      "Ġlooking": 1204,
      "Ġsignific": 1205,
      "âĢĿ": 1206,
      "pe": 1207,
      "Ġenjoy": 1208,
      "Ġpotential": 1209,
      "ious": 1210,
      "Ġgive": 1211,
      "Ġskill": 1212,
      "Ġ4": 1213,
      "Ġeveryone": 1214,
      "Ġprovid": 1215,
      "Ġet": 1216,
      "ips": 1217,
      "Ġcall": 1218,
      "to": 1219,
      "Ġlately": 1220,
      "ĠâĢľ": 1221,
      "Ġhim": 1222,
      "Ġbig": 1223,
      "Ġexamp": 1224,
      "Ġchalleng": 1225,
      "Ġcontin": 1226,
      "Ġclass": 1227,
      "====": 1228,
      "Ġabs": 1229,
      "Ġcor": 1230,
      "Ġhaving": 1231,
      "Ġcur": 1232,
      "Ġche": 1233,
      "Ġdesign": 1234,
      "Ġmem": 1235,
      "ication": 1236,
      "Ġpret": 1237,
      "ered": 1238,
      "urn": 1239,
      "Ġlist": 1240,
      "ccess": 1241,
      "iting": 1242,
      "Ġcond": 1243,
      "itions": 1244,
      "ram": 1245,
      "ex": 1246,
      "Ġenvironment": 1247,
      "Ġbuild": 1248,
      "ost": 1249,
      "Ġself": 1250,
      "ins": 1251,
      "Ġtechniqu": 1252,
      "Ġeas": 1253,
      "Ġchang": 1254,
      "lish": 1255,
      "Ġcrit": 1256,
      "ied": 1257,
      "ists": 1258,
      "Ġest": 1259,
      "Ġmult": 1260,
      "cl": 1261,
      "Ġess": 1262,
      "ending": 1263,
      "Ġcomplex": 1264,
      "Ġtri": 1265,
      "rect": 1266,
      "Ġsmall": 1267,
      "Ġsaid": 1268,
      "Ġenerg": 1269,
      "atch": 1270,
      "ger": 1271,
      "Ġsuccess": 1272,
      "ants": 1273,
      "Ġexerc": 1274,
      "the": 1275,
      "Ġdat": 1276,
      "ization": 1277,
      "iness": 1278,
      "ah": 1279,
      "Ġput": 1280,
      "Ġstrateg": 1281,
      "Ġgrou": 1282,
      "ven": 1283,
      "Ġlearning": 1284,
      "Ġenough": 1285,
      "Ġconn": 1286,
      "read": 1287,
      "fort": 1288,
      "oney": 1289,
      "ency": 1290,
      "Ġmeth": 1291,
      "Ġcre": 1292,
      "Ġpretty": 1293,
      "Ġfeels": 1294,
      "ner": 1295,
      "Ġblo": 1296,
      "wards": 1297,
      "eld": 1298,
      "Ġlast": 1299,
      "Ġdecis": 1300,
      "avi": 1301,
      "Ġris": 1302,
      "Ġenc": 1303,
      "Ġfur": 1304,
      "Ġweek": 1305,
      "Ġsci": 1306,
      "Ġthing": 1307,
      "Ġwr": 1308,
      "Ġfut": 1309,
      "Ġdone": 1310,
      "ets": 1311,
      "Ġdoesn": 1312,
      "ogn": 1313,
      "Ġhear": 1314,
      "Ġexperience": 1315,
      "Ġtest": 1316,
      "Ġdeep": 1317,
      "ources": 1318,
      "tern": 1319,
      "Ġcell": 1320,
      "Ġapproach": 1321,
      "Ġsignificant": 1322,
      "Ġinvest": 1323,
      "ax": 1324,
      "Ġdise": 1325,
      "come": 1326,
      "Ġmethod": 1327,
      "Ġenergy": 1328,
      "Ġdue": 1329,
      "Ġever": 1330,
      "aw": 1331,
      "Ġpower": 1332,
      "Ġfuture": 1333,
      "Ġamaz": 1334,
      "Ġemot": 1335,
      "Ġproper": 1336,
      "Ġhope": 1337,
      "Ġloc": 1338,
      "ital": 1339,
      "Ġnext": 1340,
      "ier": 1341,
      "Ġcaus": 1342,
      "Ġbad": 1343,
      "Ġfurther": 1344,
      "Ġpri": 1345,
      "tim": 1346,
      "by": 1347,
      "Ġprovide": 1348,
      "Ġprot": 1349,
      "Ġcommon": 1350,
      "Ġ$": 1351,
      "Ġrest": 1352,
      "Ġmeans": 1353,
      "Ġperform": 1354,
      "up": 1355,
      "Ġstarted": 1356,
      "Ġsol": 1357,
      "Ġrespons": 1358,
      "Ġstress": 1359,
      "Ġcontribut": 1360,
      "Ġwal": 1361,
      "more": 1362,
      "ages": 1363,
      "Ġpati": 1364,
      "Ġtaking": 1365,
      "Ġguess": 1366,
      "cuss": 1367,
      "Ġamazing": 1368,
      "Ġbehavi": 1369,
      "Ġstudy": 1370,
      "Ġmonth": 1371,
      "Ġinformation": 1372,
      "Ġactually": 1373,
      "oring": 1374,
      "Ġaway": 1375,
      "Ġhuman": 1376,
      "Ġincluding": 1377,
      "ars": 1378,
      "Ġimprove": 1379,
      "Ġstruct": 1380,
      "idence": 1381,
      ".\"": 1382,
      "Ġstand": 1383,
      "Ġidea": 1384,
      "ights": 1385,
      "Ġtips": 1386,
      "Ġnecess": 1387,
      "Ġcer": 1388,
      "Ġple": 1389,
      "Ġpractice": 1390,
      "Ġhist": 1391,
      "pportun": 1392,
      "rodu": 1393,
      "Ġopen": 1394,
      "Ġessential": 1395,
      "Ġopportun": 1396,
      "Ġmust": 1397,
      "mm": 1398,
      "oms": 1399,
      "nce": 1400,
      "Ġaddition": 1401,
      "Ġavoid": 1402,
      "Ġskills": 1403,
      "Ġcontrol": 1404,
      "Ġcount": 1405,
      "Ġguidel": 1406,
      "Ġnice": 1407,
      "Ġanother": 1408,
      "els": 1409,
      "less": 1410,
      "Ġ=": 1411,
      "Ġpur": 1412,
      "Ġdata": 1413,
      "gu": 1414,
      "Ġproduct": 1415,
      "Ġexam": 1416,
      "Ġhealthy": 1417,
      "arent": 1418,
      "Ġconcer": 1419,
      "Ġbit": 1420,
      "Ġless": 1421,
      "Ġtechniques": 1422,
      "Ġinfl": 1423,
      "Ġdiscuss": 1424,
      "Ġamong": 1425,
      "Ġfine": 1426,
      "ush": 1427,
      "Ġnothing": 1428,
      "Ġmeet": 1429,
      "Ġgiv": 1430,
      "Ġbased": 1431,
      "Ġonce": 1432,
      "Ġpromot": 1433,
      "lying": 1434,
      "Ġcent": 1435,
      "Ġanyone": 1436,
      "uck": 1437,
      "Ġexplore": 1438,
      "Ġpop": 1439,
      "Ġdr": 1440,
      "ination": 1441,
      "Ġunt": 1442,
      "ological": 1443,
      "Ġinstead": 1444,
      "Ġhur": 1445,
      "Ġ20": 1446,
      "bs": 1447,
      "'d": 1448,
      "gr": 1449,
      "no": 1450,
      "Ġimpact": 1451,
      "Ġtough": 1452,
      "ify": 1453,
      "Ġsoci": 1454,
      "etic": 1455,
      "Ġtimes": 1456,
      "Ġremain": 1457,
      "Ġalong": 1458,
      "Ġinclude": 1459,
      "ret": 1460,
      "ake": 1461,
      "Ġthroughout": 1462,
      "Ġmark": 1463,
      "Ġhead": 1464,
      "Ġimm": 1465,
      "ression": 1466,
      "Ġ6": 1467,
      "Ġsever": 1468,
      "Ġrepres": 1469,
      "Ġpoint": 1470,
      "Ġabsolut": 1471,
      "Ġbene": 1472,
      "Ġlim": 1473,
      "Ġsupp": 1474,
      "aging": 1475,
      "oura": 1476,
      "ood": 1477,
      "Ġprofess": 1478,
      "Ġstrong": 1479,
      "ian": 1480,
      "Ġmoney": 1481,
      "Ġpass": 1482,
      "conom": 1483,
      "Ġpersonal": 1484,
      "Ġide": 1485,
      "Ġguidelines": 1486,
      "line": 1487,
      "Ġissues": 1488,
      "Ġcru": 1489,
      "Ġexper": 1490,
      "fect": 1491,
      "Ġacross": 1492,
      "Ġpossible": 1493,
      "Ġleg": 1494,
      "Ġpress": 1495,
      "Ġbas": 1496,
      "Ġregular": 1497,
      "Ġbecome": 1498,
      "Ġeat": 1499,
      "cle": 1500,
      "Ġmeas": 1501,
      "Ġmar": 1502,
      "Ġbro": 1503,
      "ids": 1504,
      "ouse": 1505,
      "Ġchallenges": 1506,
      "Ġconnect": 1507,
      "Ġjour": 1508,
      "Ġtop": 1509,
      "Ġfinally": 1510,
      "Ġask": 1511,
      "Ġyet": 1512,
      "cip": 1513,
      "ale": 1514,
      "Ġpub": 1515,
      "Ġclear": 1516,
      "gin": 1517,
      "Ġrole": 1518,
      "Ġsitu": 1519,
      "ensive": 1520,
      "Ġtrad": 1521,
      "Ġcomplet": 1522,
      "Ġproject": 1523,
      "Ġfactors": 1524,
      "ulation": 1525,
      "Ġmot": 1526,
      "Ġdevelopment": 1527,
      "soci": 1528,
      "Ġhappened": 1529,
      "erv": 1530,
      "Ġuntil": 1531,
      "Ġpar": 1532,
      "Ġmanage": 1533,
      "Ġshap": 1534,
      "Ġdri": 1535,
      "rate": 1536,
      "Ġold": 1537,
      "Ġgrowth": 1538,
      "Ġsteps": 1539,
      "Ġseveral": 1540,
      "ilities": 1541,
      "Ġcharact": 1542,
      "Ġeduc": 1543,
      "Ġcareful": 1544,
      "abor": 1545,
      "par": 1546,
      "ibility": 1547,
      "osed": 1548,
      "âĢĶ": 1549,
      "Ġhour": 1550,
      "Ġtowards": 1551,
      "omen": 1552,
      "Ġdeal": 1553,
      "yn": 1554,
      "Ġlisten": 1555,
      "Ġnon": 1556,
      "Ġlight": 1557,
      "Ġdays": 1558,
      "Ġrelax": 1559,
      "Ġther": 1560,
      "Ġwrong": 1561,
      "ries": 1562,
      "Ġ[": 1563,
      "Ġfunction": 1564,
      "Ġbenef": 1565,
      "istic": 1566,
      "Ġclean": 1567,
      "Ġcertain": 1568,
      "Ġtherap": 1569,
      "Ġelect": 1570,
      "orts": 1571,
      "Ġconsist": 1572,
      "Ġter": 1573,
      "Ġconcept": 1574,
      "Ġbreak": 1575,
      "Ġocc": 1576,
      "Ġey": 1577,
      "Ġtalking": 1578,
      "ined": 1579,
      "Ġaddress": 1580,
      "Ġenh": 1581,
      "Ġes": 1582,
      "ash": 1583,
      "Ġoverall": 1584,
      "Ġmet": 1585,
      "oth": 1586,
      "Ġabsolutely": 1587,
      "Ġmatter": 1588,
      "view": 1589,
      "lications": 1590,
      "Ġtrue": 1591,
      "Ġtrust": 1592,
      "Ġlar": 1593,
      "Ġdirect": 1594,
      "Ġpositive": 1595,
      "Ġbal": 1596,
      "Ġill": 1597,
      "Ġemb": 1598,
      "Ġcrucial": 1599,
      "Ġpresent": 1600,
      "Ġda": 1601,
      "Ġaffect": 1602,
      "Ġassoci": 1603,
      "Ġspecial": 1604,
      "usion": 1605,
      "Ġphysical": 1606,
      "ivity": 1607,
      "Ġperfect": 1608,
      "Ġfollowing": 1609,
      "rent": 1610,
      "Ġach": 1611,
      "Ġcou": 1612,
      "Ġrun": 1613,
      "Ġsw": 1614,
      "Ġinteract": 1615,
      "na": 1616,
      "Ġpay": 1617,
      "ique": 1618,
      "Ġheart": 1619,
      "verse": 1620,
      "aterial": 1621,
      "eric": 1622,
      "Ġz": 1623,
      "ablish": 1624,
      "Ġpolic": 1625,
      "Ġplease": 1626,
      "ably": 1627,
      "Ġfost": 1628,
      "cent": 1629,
      "Ġmultip": 1630,
      "ilar": 1631,
      "19": 1632,
      "Ġconte": 1633,
      "Ġmiss": 1634,
      "Ġimag": 1635,
      "Ġkey": 1636,
      "work": 1637,
      "Ġpost": 1638,
      "ili": 1639,
      "sequ": 1640,
      "elcome": 1641,
      "Ġregard": 1642,
      "Ġdoct": 1643,
      "Ġparent": 1644,
      "ature": 1645,
      "ording": 1646,
      "Ġrespect": 1647,
      "Ġdeterm": 1648,
      "Ġnorm": 1649,
      "Ġprogress": 1650,
      "Ġquestions": 1651,
      "ason": 1652,
      "Ġsystems": 1653,
      "aut": 1654,
      "Ġlevels": 1655,
      "Ġnight": 1656,
      "Ġbrain": 1657,
      "uff": 1658,
      "Ġexample": 1659,
      "Ġ|": 1660,
      "Ġemplo": 1661,
      "bers": 1662,
      "ables": 1663,
      "asing": 1664,
      "Ġdisease": 1665,
      "Ġexact": 1666,
      "Ġmaterial": 1667,
      "Ġsense": 1668,
      "Ġobs": 1669,
      "Ġfig": 1670,
      "for": 1671,
      "ulations": 1672,
      "Ġtea": 1673,
      "Ġpast": 1674,
      "Ġfre": 1675,
      "Ġwon": 1676,
      "Ġspecific": 1677,
      "reh": 1678,
      "Ġstrategies": 1679,
      "Ġmental": 1680,
      "anced": 1681,
      "air": 1682,
      "ple": 1683,
      "Ġneg": 1684,
      "Ġeconom": 1685,
      "Ġupon": 1686,
      "over": 1687,
      "Ġprin": 1688,
      "olution": 1689,
      "Ġanx": 1690,
      "Ġblood": 1691,
      "Ġneeds": 1692,
      "key": 1693,
      "itut": 1694,
      "Ġfar": 1695,
      "Ġtool": 1696,
      "Ġestablish": 1697,
      "Ġensure": 1698,
      "Ġcreate": 1699,
      "right": 1700,
      "Ġchanges": 1701,
      "aking": 1702,
      "Ġrele": 1703,
      "imal": 1704,
      "Ġcompreh": 1705,
      "Ġgover": 1706,
      "Ġeating": 1707,
      "Ġinit": 1708,
      "atic": 1709,
      "Ġsympt": 1710,
      "Ġactivities": 1711,
      "Ġworry": 1712,
      "Ġencoura": 1713,
      "Ġsimilar": 1714,
      "Ġstate": 1715,
      "Ġoffer": 1716,
      "]]": 1717,
      "Ġfav": 1718,
      "Ġisn": 1719,
      "aring": 1720,
      "Ġneeded": 1721,
      "elt": 1722,
      "Ġswe": 1723,
      "reng": 1724,
      "rength": 1725,
      "Ġaccording": 1726,
      "Ġteam": 1727,
      "Ġhouse": 1728,
      "Ġproblems": 1729,
      "ream": 1730,
      "ident": 1731,
      "Ġgain": 1732,
      "Ġhon": 1733,
      "Ġrisk": 1734,
      "Ġdra": 1735,
      "Ġobject": 1736,
      "Ġengage": 1737,
      "Ġaccount": 1738,
      "Ġshare": 1739,
      "Ġcurrent": 1740,
      "Ġlive": 1741,
      "ney": 1742,
      "Ġanaly": 1743,
      "Ġmom": 1744,
      "Ġunique": 1745,
      "Ġliving": 1746,
      "Ġfund": 1747,
      "ither": 1748,
      "Ġcomfort": 1749,
      "Ġexercise": 1750,
      "he": 1751,
      "Ġexpect": 1752,
      "ink": 1753,
      "Ġcommunity": 1754,
      "Ġinflu": 1755,
      "Ġagainst": 1756,
      "Ġbehavior": 1757,
      "Ġexplain": 1758,
      "Ġstrength": 1759,
      "ands": 1760,
      "Ġaccess": 1761,
      "angu": 1762,
      "Ġcolle": 1763,
      "osing": 1764,
      "Ġchildren": 1765,
      "Ġve": 1766,
      "Ġcompan": 1767,
      "Ġguide": 1768,
      "Ġret": 1769,
      "Ġparticular": 1770,
      "Ġtemp": 1771,
      "bal": 1772,
      "Ġthree": 1773,
      "Ġstudies": 1774,
      "ides": 1775,
      "ises": 1776,
      "sy": 1777,
      "Ġcharacter": 1778,
      "Ġmor": 1779,
      "Ġskin": 1780,
      "Ġaspect": 1781,
      "Ġcoll": 1782,
      "Ġindividuals": 1783,
      "Ġbusiness": 1784,
      "Ġfat": 1785,
      "por": 1786,
      "der": 1787,
      "Ġdisc": 1788,
      "Ġattention": 1789,
      "Ġfield": 1790,
      "Ġstru": 1791,
      "Ġhy": 1792,
      "Ġstop": 1793,
      "Ġcommunication": 1794,
      "Ġfr": 1795,
      "Ġconditions": 1796,
      "Ġwhether": 1797,
      "Ġant": 1798,
      "Ġexactly": 1799,
      "Ġau": 1800,
      "icult": 1801,
      "Ġcoming": 1802,
      "Ġcra": 1803,
      "erve": 1804,
      "Ġworth": 1805,
      "Ġconvers": 1806,
      "Ġsecond": 1807,
      "ledge": 1808,
      "Ġele": 1809,
      "Ġdecision": 1810,
      "Ġsoon": 1811,
      "Ġlangu": 1812,
      "Ġstarting": 1813,
      "201": 1814,
      "gn": 1815,
      "ds": 1816,
      "Ġrelationships": 1817,
      "Ġbeaut": 1818,
      "Ġexperiences": 1819,
      "agn": 1820,
      "Ġnatural": 1821,
      "Ġways": 1822,
      "Ġgoals": 1823,
      "Ġlaw": 1824,
      "Ġwrit": 1825,
      "Ġturn": 1826,
      "Ġrather": 1827,
      "Ġdiet": 1828,
      "Ġcost": 1829,
      "Ġlost": 1830,
      "Ġanalys": 1831,
      "Ġearly": 1832,
      "Ġrecogn": 1833,
      "Ġrelated": 1834,
      "Ġcheck": 1835,
      "Ġcause": 1836,
      "Ġwond": 1837,
      "Ġprincip": 1838,
      "chan": 1839,
      "ted": 1840,
      "Ġresources": 1841,
      "omm": 1842,
      "Ġsymptoms": 1843,
      "Ġstrugg": 1844,
      "io": 1845,
      "Ġstudents": 1846,
      "Ġnecessary": 1847,
      "Ġlow": 1848,
      "Ġcalled": 1849,
      "Ġfavor": 1850,
      "ggest": 1851,
      "Ġ7": 1852,
      "Ġsar": 1853,
      "cially": 1854,
      "nces": 1855,
      "ule": 1856,
      "Ġdifficult": 1857,
      "Ġcut": 1858,
      "side": 1859,
      "Ġprob": 1860,
      "Ġameric": 1861,
      "Ġmethods": 1862,
      "Ġsuggest": 1863,
      "Ġcr": 1864,
      "Ġloss": 1865,
      "Ġdeb": 1866,
      "Ġprim": 1867,
      "Ġserv": 1868,
      "Ġfore": 1869,
      "lement": 1870,
      "Ġinte": 1871,
      "Ġrepresent": 1872,
      "iod": 1873,
      "Ġmonths": 1874,
      "Ġap": 1875,
      "Ġperspect": 1876,
      "ix": 1877,
      "Ġcomb": 1878,
      "Ġhang": 1879,
      "Ġgr": 1880,
      "Ġareas": 1881,
      "Ġsel": 1882,
      "pri": 1883,
      "Ġteach": 1884,
      "Ġhurt": 1885,
      "Ġnut": 1886,
      "Ġprevent": 1887,
      "Ġ[[": 1888,
      "gs": 1889,
      "Ġhelps": 1890,
      "Ġparticip": 1891,
      "aces": 1892,
      "Ġperiod": 1893,
      "Ġprior": 1894,
      "Ġgroup": 1895,
      "Ġcir": 1896,
      "Ġwelcome": 1897,
      "inal": 1898,
      "Ġbreat": 1899,
      "Ġenvironmental": 1900,
      "Ġeasy": 1901,
      "Ġpublic": 1902,
      "Ġreach": 1903,
      "Ġready": 1904,
      "sel": 1905,
      "Ġaim": 1906,
      "Ġmechan": 1907,
      "Ġhours": 1908,
      "ried": 1909,
      "ires": 1910,
      "Ġwent": 1911,
      "Ġalone": 1912,
      "Ġcells": 1913,
      "Ġsuccessful": 1914,
      "Ġ.": 1915,
      "Ġwow": 1916,
      "Ġplus": 1917,
      "Ġleast": 1918,
      "Ġinsights": 1919,
      "ane": 1920,
      "Ġ19": 1921,
      "ising": 1922,
      "Ġx": 1923,
      "Ġbecom": 1924,
      "ustr": 1925,
      "Ġintrodu": 1926,
      "Ġparents": 1927,
      "Ġvalu": 1928,
      "ym": 1929,
      "Ġsarah": 1930,
      "Ġresults": 1931,
      "Ġmedical": 1932,
      "Ġopportunities": 1933,
      "Ġimagine": 1934,
      "Ġbed": 1935,
      "Ġexist": 1936,
      "arr": 1937,
      "iety": 1938,
      "Ġhold": 1939,
      "Ġsens": 1940,
      "ters": 1941,
      "Ġintern": 1942,
      "Ġspace": 1943,
      "versity": 1944,
      "Ġemploy": 1945,
      "ously": 1946,
      "Ġsing": 1947,
      "Ġtreatment": 1948,
      "Ġworks": 1949,
      "Ġdaily": 1950,
      "ready": 1951,
      "Ġfac": 1952,
      "Ġfelt": 1953,
      "Ġknown": 1954,
      "pping": 1955,
      "Ġfigure": 1956,
      "Ġmultiple": 1957,
      "Ġalready": 1958,
      "Ġ\\": 1959,
      "here": 1960,
      "Ġair": 1961,
      "Ġadvice": 1962,
      "Ġpsy": 1963,
      "care": 1964,
      "Ġstuff": 1965,
      "onst": 1966,
      "br": 1967,
      "Ġeither": 1968,
      "Ġcomes": 1969,
      "raph": 1970,
      "alu": 1971,
      "de": 1972,
      "Ġpsych": 1973,
      "Ġwish": 1974,
      "Ġlooks": 1975,
      "Ġexpress": 1976,
      "Ġwatch": 1977,
      "Ġfree": 1978,
      "Ġnature": 1979,
      "Ġdad": 1980,
      "Ġ*": 1981,
      "Ġlanguage": 1982,
      "Ġnumber": 1983,
      "cul": 1984,
      "Ġang": 1985,
      "Ġintegr": 1986,
      "terns": 1987,
      "Ġdam": 1988,
      "Ġprotect": 1989,
      "Ġlik": 1990,
      "bo": 1991,
      "Ġbegin": 1992,
      "Ġarea": 1993,
      "Ġanxiety": 1994,
      "Ġmeaning": 1995,
      "Ġevent": 1996,
      "go": 1997,
      "Ġtre": 1998,
      "Ġpractices": 1999,
      "cies": 2000,
      "Ġpatterns": 2001,
      "Ġminut": 2002,
      "li": 2003,
      "Ġassociated": 2004,
      "Ġforward": 2005,
      "Ġanymore": 2006,
      "Ġfall": 2007,
      "Ġsafe": 2008,
      "ones": 2009,
      "Ġcase": 2010,
      "Ġut": 2011,
      "ilit": 2012,
      "Ġshort": 2013,
      "Ġhonest": 2014,
      "atory": 2015,
      "Ġdev": 2016,
      "Ġ10": 2017,
      "Ġtype": 2018,
      "ints": 2019,
      "Ġspea": 2020,
      "Ġleft": 2021,
      "Ġage": 2022,
      "Ġwhole": 2023,
      "Ġbusy": 2024,
      "Ġtypes": 2025,
      "Ġgovern": 2026,
      "''": 2027,
      "Ġregarding": 2028,
      "Ġmess": 2029,
      "Ġcy": 2030,
      "Ġmusic": 2031,
      "Ġhair": 2032,
      "Ġcompet": 2033,
      "Ġgiven": 2034,
      "Ġfit": 2035,
      "Ġknowledge": 2036,
      "Ġflu": 2037,
      "ha": 2038,
      "Ġyoun": 2039,
      "pecially": 2040,
      "selves": 2041,
      "just": 2042,
      "Ġcomput": 2043,
      "ude": 2044,
      "Ġlocal": 2045,
      "Ġexcited": 2046,
      "ancing": 2047,
      "Ġsurround": 2048,
      "Ġhab": 2049,
      "Ġquick": 2050,
      "Ġfeelings": 2051,
      "Ġline": 2052,
      "ern": 2053,
      "Ġideas": 2054,
      "Ġclose": 2055,
      "set": 2056,
      "Ġjourney": 2057,
      "Ġalright": 2058,
      "ove": 2059,
      "Ġvalues": 2060,
      "di": 2061,
      "Ġavail": 2062,
      "Ġwait": 2063,
      "========": 2064,
      "Ġluck": 2065,
      "itional": 2066,
      "aling": 2067,
      "Ġscient": 2068,
      "ats": 2069,
      "Ġeffici": 2070,
      "Ġchoose": 2071,
      "Ġprop": 2072,
      "Ġevidence": 2073,
      "Ġexperim": 2074,
      "Ġglo": 2075,
      "pite": 2076,
      "Ġpolit": 2077,
      "Ġwalk": 2078,
      "uro": 2079,
      "ming": 2080,
      "Ġsal": 2081,
      "Ġnet": 2082,
      "ynam": 2083,
      "Ġmarket": 2084,
      "Ġface": 2085,
      "Ġrout": 2086,
      "Ġeth": 2087,
      "nov": 2088,
      "pped": 2089,
      "ored": 2090,
      "Ġdiagn": 2091,
      "Ġemerg": 2092,
      "yle": 2093,
      "Ġprote": 2094,
      "Ġsaf": 2095,
      "Ġmedic": 2096,
      "cri": 2097,
      "Ġespecially": 2098,
      "Ġul": 2099,
      "Ġreact": 2100,
      "Ġconsequ": 2101,
      "Ġfull": 2102,
      "Ġauth": 2103,
      "hy": 2104,
      "ging": 2105,
      "Ġmath": 2106,
      "isms": 2107,
      "Ġer": 2108,
      "erature": 2109,
      "ob": 2110,
      "Ġvaluable": 2111,
      "Ġdemonst": 2112,
      "where": 2113,
      "Ġpressure": 2114,
      "Ġaltern": 2115,
      "Ġvol": 2116,
      "Ġ8": 2117,
      "aries": 2118,
      "**": 2119,
      "iful": 2120,
      "Ġuni": 2121,
      "den": 2122,
      "Ġappropri": 2123,
      "Ġeducation": 2124,
      "Ġdynam": 2125,
      "Ġrequire": 2126,
      "Ġdoctor": 2127,
      "Ġsection": 2128,
      "Ġseems": 2129,
      "clusion": 2130,
      "Ġbreath": 2131,
      "uri": 2132,
      "Ġtas": 2133,
      "Ġoper": 2134,
      "ograph": 2135,
      "Ġstat": 2136,
      "Ġlose": 2137,
      "Ġdifference": 2138,
      "Ġoccur": 2139,
      "reen": 2140,
      "Ġreason": 2141,
      "Ġbeautiful": 2142,
      "Ġcontinu": 2143,
      "Ġprocesses": 2144,
      "gen": 2145,
      "Ġevalu": 2146,
      "Ġlater": 2147,
      "Ġquality": 2148,
      "Ġmic": 2149,
      "Ġallows": 2150,
      "Ġincor": 2151,
      "Ġtools": 2152,
      "Ġpref": 2153,
      "Ġfeed": 2154,
      "Ġonline": 2155,
      "Ġchem": 2156,
      "augh": 2157,
      "ustain": 2158,
      "Ġeffective": 2159,
      "xim": 2160,
      "Ġcontain": 2161,
      "Ġidentify": 2162,
      "Ġlif": 2163,
      "Ġreflect": 2164,
      "Ġleading": 2165,
      "back": 2166,
      "Ġcancer": 2167,
      "Ġinvestig": 2168,
      "Ġdiverse": 2169,
      "irl": 2170,
      "Ġbuilding": 2171,
      "rop": 2172,
      "Ġinnov": 2173,
      "Ġdisco": 2174,
      "Ġcontinue": 2175,
      "Ġprinciples": 2176,
      "Ġcool": 2177,
      "Ġresearchers": 2178,
      "time": 2179,
      "Ġnear": 2180,
      "Ġprep": 2181,
      "Ġdetail": 2182,
      "Ġsho": 2183,
      "Ġassess": 2184,
      "Ġnormal": 2185,
      "Ġfavorite": 2186,
      "Ġvalue": 2187,
      "ĠĠĠĠ": 2188,
      "acy": 2189,
      "Ġpath": 2190,
      "Ġbab": 2191,
      "Ġtar": 2192,
      "atives": 2193,
      "Ġsituation": 2194,
      "Ġweeks": 2195,
      "Ġside": 2196,
      "Ġlives": 2197,
      "Ġcritical": 2198,
      "Ġasking": 2199,
      "Ġvir": 2200,
      "ration": 2201,
      "Ġharm": 2202,
      "Ġsuff": 2203,
      "Ġhistory": 2204,
      "ially": 2205,
      "Ġones": 2206,
      "Ġusually": 2207,
      "Ġoptions": 2208,
      "ctions": 2209,
      "200": 2210,
      "Ġleave": 2211,
      "roud": 2212,
      "Ġfail": 2213,
      "Ġrecomm": 2214,
      "light": 2215,
      "Ġsustain": 2216,
      "Ġsat": 2217,
      "apt": 2218,
      "ert": 2219,
      "imate": 2220,
      "Ġgroups": 2221,
      "Ġwomen": 2222,
      "ges": 2223,
      "Ġroom": 2224,
      "Ġaut": 2225,
      "edi": 2226,
      "Ġbalance": 2227,
      "Ġcirc": 2228,
      "Ġanalysis": 2229,
      "Ġproud": 2230,
      "resh": 2231,
      "Ġperformance": 2232,
      "Ġincorpor": 2233,
      "Ġfast": 2234,
      "Ġgoal": 2235,
      "Ġ+": 2236,
      "Ġground": 2237,
      "cks": 2238,
      "asc": 2239,
      "Ġseri": 2240,
      "min": 2241,
      "Ġpromise": 2242,
      "Ġanalyz": 2243,
      "elling": 2244,
      "Ġmodel": 2245,
      "erous": 2246,
      "Ġfinan": 2247,
      "Ġrecommend": 2248,
      "Ġquant": 2249,
      "Ġgirl": 2250,
      "Ġcollabor": 2251,
      "Ġtarget": 2252,
      "Ġhaven": 2253,
      "Ġbenefits": 2254,
      "Ġsaw": 2255,
      "Ġslow": 2256,
      "Ġdiv": 2257,
      "Ġeffects": 2258,
      "ird": 2259,
      "Ġconcerns": 2260,
      "Ġinvolves": 2261,
      "Ġcompon": 2262,
      "su": 2263,
      "Ġcomprehensive": 2264,
      "atever": 2265,
      "Ġmoment": 2266,
      "Ġdig": 2267,
      "pr": 2268,
      "Ġcame": 2269,
      "rem": 2270,
      "Ġwasn": 2271,
      "Ġfundam": 2272,
      "Ġseen": 2273,
      "Ġreading": 2274,
      "tical": 2275,
      "Ġaspects": 2276,
      "Ġmotiv": 2277,
      "Ġrequires": 2278,
      "Ġsex": 2279,
      "Ġwhatever": 2280,
      "Ġtried": 2281,
      "Ġmaintaining": 2282,
      "Ġcust": 2283,
      "Ġcollect": 2284,
      "Ġdisord": 2285,
      "Ġprofessional": 2286,
      "Ġsmo": 2287,
      "Ġmanagement": 2288,
      "ots": 2289,
      "Ġfair": 2290,
      "ee": 2291,
      "Ġminim": 2292,
      "Ġamount": 2293,
      "icate": 2294,
      "Ġincreasing": 2295,
      "atures": 2296,
      "und": 2297,
      "Ġcompany": 2298,
      "Ġconcepts": 2299,
      "Ġtraining": 2300,
      "Ġindust": 2301,
      "Ġenjoying": 2302,
      "yond": 2303,
      "Ġscience": 2304,
      "Ġcalories": 2305,
      "Ġsweet": 2306,
      "Ġsubst": 2307,
      "Ġadjust": 2308,
      "Ġemotional": 2309,
      "Ġflow": 2310,
      "Ġcontribute": 2311,
      "Ġmaterials": 2312,
      "Ġtired": 2313,
      "ided": 2314,
      "Ġgradu": 2315,
      "osis": 2316,
      "equ": 2317,
      "Ġappear": 2318,
      "Ġfram": 2319,
      "Ġver": 2320,
      "Ġpred": 2321,
      "Ġquestion": 2322,
      "Ġcommit": 2323,
      "ury": 2324,
      "Ġinterested": 2325,
      "Ġexamples": 2326,
      "Ġbook": 2327,
      "Ġaction": 2328,
      "ken": 2329,
      "Ġposition": 2330,
      "Ġexciting": 2331,
      "Ġactivity": 2332,
      "Ġeye": 2333,
      "ards": 2334,
      "Ġfrequ": 2335,
      "Ġrecent": 2336,
      "Ġdom": 2337,
      "put": 2338,
      "ource": 2339,
      "Ġproviding": 2340,
      "Ġhigher": 2341,
      "ral": 2342,
      "Ġtakes": 2343,
      "Ġensuring": 2344,
      "Ġincrease": 2345,
      "Ġthoughts": 2346,
      "Ġactive": 2347,
      "Ġconstant": 2348,
      "guidel": 2349,
      "Ġadditionally": 2350,
      "Ġachieve": 2351,
      "app": 2352,
      "Ġhelping": 2353,
      "icing": 2354,
      "Ġlarge": 2355,
      "Ġavailable": 2356,
      "Ġeffectively": 2357,
      "Ġorganiz": 2358,
      "Ġboss": 2359,
      "Ġkne": 2360,
      "Ġcreating": 2361,
      "Ġpu": 2362,
      "Ġstory": 2363,
      "cipl": 2364,
      "sw": 2365,
      "Ġimplement": 2366,
      "Ġorig": 2367,
      "Ġview": 2368,
      "Ġtheory": 2369,
      "Ġsimple": 2370,
      "Ġur": 2371,
      "Ġbehind": 2372,
      "Ġcultural": 2373,
      "Ġmeasure": 2374,
      "ators": 2375,
      "Ġstates": 2376,
      "Ġstructure": 2377,
      "Ġclos": 2378,
      "Ġcouldn": 2379,
      "Ġetc": 2380,
      "Ġtot": 2381,
      "Ġprobably": 2382,
      "Ġcontext": 2383,
      "ension": 2384,
      "ised": 2385,
      "Ġsumm": 2386,
      "Ġlay": 2387,
      "Ġplaying": 2388,
      "cking": 2389,
      "Ġoutside": 2390,
      "Ġago": 2391,
      "not": 2392,
      "Ġspecifically": 2393,
      "Ġbring": 2394,
      "Ġsignificantly": 2395,
      "Ġselect": 2396,
      "ster": 2397,
      "Ġimportance": 2398,
      "Ġmist": 2399,
      "Ġtherapy": 2400,
      "ches": 2401,
      "Ġmaj": 2402,
      "Ġinterp": 2403,
      "fully": 2404,
      "Ġbeyond": 2405,
      "ified": 2406,
      "Ġsched": 2407,
      "use": 2408,
      "Ġability": 2409,
      "Ġconsum": 2410,
      "Ġreduce": 2411,
      "Ġmembers": 2412,
      "ifying": 2413,
      "Ġapplic": 2414,
      "enge": 2415,
      "orn": 2416,
      "ank": 2417,
      "ient": 2418,
      "Ġcity": 2419,
      "Ġpie": 2420,
      "ief": 2421,
      "Ġdespite": 2422,
      "Ġkids": 2423,
      "Ġapproaches": 2424,
      "Ġbra": 2425,
      "Ġaccept": 2426,
      "ules": 2427,
      "Ġpap": 2428,
      "Ġextra": 2429,
      "Ġtold": 2430,
      "Ġbound": 2431,
      "Ġregularly": 2432,
      "Ġcollege": 2433,
      "Ġincreased": 2434,
      "Ġded": 2435,
      "Ġappropriate": 2436,
      "Ġhanging": 2437,
      "Ġdecisions": 2438,
      "Ġmoving": 2439,
      "Ġencourage": 2440,
      "Ġcomfortable": 2441,
      "Ġreview": 2442,
      "Ġultim": 2443,
      "Ġanim": 2444,
      "Ġfoods": 2445,
      "000": 2446,
      "Ġefforts": 2447,
      "hood": 2448,
      "Ġpea": 2449,
      "Ġfinancial": 2450,
      "Ġmuscle": 2451,
      "Ġdream": 2452,
      "Ġlower": 2453,
      "Ġyoung": 2454,
      "Ġorder": 2455,
      "eness": 2456,
      "Ġgame": 2457,
      "ronic": 2458,
      "Ġnav": 2459,
      "comes": 2460,
      "iring": 2461,
      "works": 2462,
      "vent": 2463,
      "Ġglobal": 2464,
      "Ġcondition": 2465,
      "Ġsources": 2466,
      "Ġge": 2467,
      "ma": 2468,
      "Ġhistor": 2469,
      "ems": 2470,
      "Ġfrustr": 2471,
      "most": 2472,
      "Ġoutcomes": 2473,
      "Ġsuper": 2474,
      "Ġtrou": 2475,
      "oration": 2476,
      "Ġchallenge": 2477,
      "Ġentire": 2478,
      "Ġbar": 2479,
      "Ġcondu": 2480,
      "Ġcustom": 2481,
      "Ġdraw": 2482,
      "Ġlimit": 2483,
      "Ġminutes": 2484,
      "Ġ9": 2485,
      "Ġfinish": 2486,
      "Ġnegative": 2487,
      "man": 2488,
      "Ġinside": 2489,
      "Ġgeneral": 2490,
      "Ġsubject": 2491,
      "Ġmodels": 2492,
      "Ġchance": 2493,
      "rist": 2494,
      "Ġloved": 2495,
      "Ġsurf": 2496,
      "Ġfundamental": 2497,
      "Ġhealthcare": 2498,
      "inary": 2499,
      "Ġfix": 2500,
      "Ġrelev": 2501,
      "Ġutil": 2502,
      "sh": 2503,
      "Ġspend": 2504,
      "Ġ'": 2505,
      "Ġframe": 2506,
      "Ġsingle": 2507,
      "Ġtransp": 2508,
      "Ġproducts": 2509,
      "Ġmajor": 2510,
      "Ġansw": 2511,
      "Ġbur": 2512,
      "Ġcontact": 2513,
      "Ġtur": 2514,
      "head": 2515,
      "Ġforms": 2516,
      "Ġfil": 2517,
      "Ġunit": 2518,
      "Ġeffort": 2519,
      "nter": 2520,
      "Ġinteresting": 2521,
      "Ġinstance": 2522,
      "Ġtransform": 2523,
      "Ġfight": 2524,
      "Ġexploring": 2525,
      "Ġsn": 2526,
      "orary": 2527,
      "Ġtend": 2528,
      "Ġartic": 2529,
      "Ġaware": 2530,
      "cap": 2531,
      "Ġadapt": 2532,
      "Ġreport": 2533,
      "Ġsto": 2534,
      "Ġdog": 2535,
      "Ġaud": 2536,
      "Ġexperien": 2537,
      "pid": 2538,
      "Ġmodern": 2539,
      "ele": 2540,
      "istance": 2541,
      "ification": 2542,
      "has": 2543,
      "Ġton": 2544,
      "Ġvi": 2545,
      "Ġsociety": 2546,
      "Ġmid": 2547,
      "Ġeconomic": 2548,
      "Ġful": 2549,
      "Ġtraditional": 2550,
      "Ġprevious": 2551,
      "hib": 2552,
      "Ġmass": 2553,
      "Ġdistribut": 2554,
      "Ġstructures": 2555,
      "oint": 2556,
      "Ġfacilit": 2557,
      "Ġcommunities": 2558,
      "umpt": 2559,
      "oks": 2560,
      "eria": 2561,
      "inating": 2562,
      "Ġhands": 2563,
      "epend": 2564,
      "Ġtechnology": 2565,
      "Ġstra": 2566,
      "Ġju": 2567,
      "Ġinsp": 2568,
      "Ġstore": 2569,
      "itude": 2570,
      "Ġpa": 2571,
      "Ġapplications": 2572,
      "Ġmedia": 2573,
      "Ġwin": 2574,
      "unch": 2575,
      "Ġemotions": 2576,
      "Ġstri": 2577,
      "Ġnavig": 2578,
      "Ġengine": 2579,
      "Ġplanning": 2580,
      "Ġgiving": 2581,
      "Ġagree": 2582,
      "ties": 2583,
      "Ġremains": 2584,
      "of": 2585,
      "Ġhal": 2586,
      "Ġsafety": 2587,
      "being": 2588,
      "Ġinj": 2589,
      "Ġbir": 2590,
      "Ġmen": 2591,
      "Ġlate": 2592,
      "aps": 2593,
      "Ġwords": 2594,
      "Ġinterests": 2595,
      "inct": 2596,
      "Ġvisual": 2597,
      "Ġcat": 2598,
      "Ġdeveloping": 2599,
      "ront": 2600,
      "Ġmis": 2601,
      "Ġshape": 2602,
      "Ġprovides": 2603,
      "Ġbasic": 2604,
      "Ġcard": 2605,
      "way": 2606,
      "Ġinstitut": 2607,
      "Ġdeeper": 2608,
      "cles": 2609,
      "ames": 2610,
      "des": 2611,
      "Ġhappens": 2612,
      "Ġadult": 2613,
      "Ġmoreover": 2614,
      "Ġparticularly": 2615,
      "ield": 2616,
      "olutions": 2617,
      "Ġjud": 2618,
      "Ġpatient": 2619,
      "Ġparty": 2620,
      "Ġinvolved": 2621,
      "Ġwriting": 2622,
      "Ġsurrounding": 2623,
      "ceed": 2624,
      "going": 2625,
      "Ġtook": 2626,
      "guideline": 2627,
      "Ġpatients": 2628,
      "nds": 2629,
      "erences": 2630,
      "Ġrece": 2631,
      "Ġshif": 2632,
      "Ġpolicy": 2633,
      "ium": 2634,
      "Ġsun": 2635,
      "mit": 2636,
      "Ġcop": 2637,
      "Ġdru": 2638,
      "Ġreve": 2639,
      "emp": 2640,
      "aged": 2641,
      "Ġir": 2642,
      "ologies": 2643,
      "oph": 2644,
      "Ġopportunity": 2645,
      "Ġultimately": 2646,
      "Ġhit": 2647,
      "othes": 2648,
      "Ġenhance": 2649,
      "Ġmorning": 2650,
      "Ġaccur": 2651,
      "eless": 2652,
      "Ġpopular": 2653,
      "Ġculture": 2654,
      "Ġfinding": 2655,
      "Ġfocusing": 2656,
      "Ġmonit": 2657,
      "Ġdecided": 2658,
      "Ġelements": 2659,
      "pro": 2660,
      "Ġvia": 2661,
      "Ġlonger": 2662,
      "Ġhor": 2663,
      "iliar": 2664,
      "Ġfresh": 2665,
      "Ġissue": 2666,
      "Ġworried": 2667,
      "Ġpush": 2668,
      "Ġsick": 2669,
      "Ġcompletely": 2670,
      "ision": 2671,
      "Ġtrack": 2672,
      "Ġlistening": 2673,
      "Ġemphas": 2674,
      "ners": 2675,
      "med": 2676,
      "itch": 2677,
      "Ġfour": 2678,
      "mb": 2679,
      "Ġname": 2680,
      "Ġeventually": 2681,
      "Ġamerican": 2682,
      "emat": 2683,
      "ounds": 2684,
      "Ġmicro": 2685,
      "mon": 2686,
      "Ġevents": 2687,
      "Ġfindings": 2688,
      "Ġcatch": 2689,
      "Ġcomponents": 2690,
      "rel": 2691,
      "Ġsoft": 2692,
      "arily": 2693,
      "Ġcolor": 2694,
      "fact": 2695,
      "Ġspending": 2696,
      "Ġwarm": 2697,
      "Ġlearned": 2698,
      "Ġseeing": 2699,
      "Ġseek": 2700,
      "Ġtou": 2701,
      "Ġsaying": 2702,
      "Ġbroad": 2703,
      "Ġhun": 2704,
      "Ġtext": 2705,
      "ny": 2706,
      "Ġste": 2707,
      "val": 2708,
      "Ġworked": 2709,
      "Ġprogram": 2710,
      "Ġterm": 2711,
      "Ġpoints": 2712,
      "Ġfunctions": 2713,
      "Ġincred": 2714,
      "Ġtrouble": 2715,
      "Ġ201": 2716,
      "Ġscen": 2717,
      "Ġbud": 2718,
      "adem": 2719,
      "Ġcogn": 2720,
      "ived": 2721,
      "Ġanimals": 2722,
      "ender": 2723,
      "une": 2724,
      "though": 2725,
      "Ġec": 2726,
      "Ġperspectives": 2727,
      "Ġphot": 2728,
      "ife": 2729,
      "Ġinteractions": 2730,
      "verage": 2731,
      "Ġmill": 2732,
      "gar": 2733,
      "Ġkeeping": 2734,
      "Ġtravel": 2735,
      "itation": 2736,
      "Ġactions": 2737,
      "Ġprimary": 2738,
      "Ġservices": 2739,
      "Ġmole": 2740,
      "Ġcapt": 2741,
      "Ġmil": 2742,
      "Ġrev": 2743,
      "itable": 2744,
      "hold": 2745,
      "eter": 2746,
      "Ġsolutions": 2747,
      "Ġcross": 2748,
      "Ġthemselves": 2749,
      "Ġpaper": 2750,
      "Ġpurp": 2751,
      "outh": 2752,
      "Ġtheore": 2753,
      "Ġdeg": 2754,
      "Ġresponsible": 2755,
      "Ġconnections": 2756,
      "Ġunderlying": 2757,
      "Ġdoc": 2758,
      "Ġpriv": 2759,
      "Ġdepression": 2760,
      "Ġquickly": 2761,
      "rupt": 2762,
      "Ġcontemp": 2763,
      "rams": 2764,
      "Ġpromote": 2765,
      "Ġacadem": 2766,
      "istics": 2767,
      "Ġalign": 2768,
      "friend": 2769,
      "vere": 2770,
      "Ġrights": 2771,
      "Ġred": 2772,
      "Ġconsistent": 2773,
      "Ġshared": 2774,
      "Ġcauses": 2775,
      "Ġexercises": 2776,
      "Ġcalm": 2777,
      "Ġpriorit": 2778,
      "Ġaddressing": 2779,
      "Ġsize": 2780,
      "Ġthus": 2781,
      "Ġhu": 2782,
      "Ġfru": 2783,
      "cut": 2784,
      "Ġaccom": 2785,
      "Ġdamage": 2786,
      "akes": 2787,
      "Ġintric": 2788,
      "Ġwalking": 2789,
      "Ġrig": 2790,
      "Ġden": 2791,
      "Ġalmost": 2792,
      "Ġexploration": 2793,
      "Ġprotein": 2794,
      "Ġclin": 2795,
      "based": 2796,
      "Ġschol": 2797,
      "Ġrunning": 2798,
      "Ġbecomes": 2799,
      "Ġproduction": 2800,
      "Ġknowing": 2801,
      "Ġnumerous": 2802,
      "this": 2803,
      "Ġbaby": 2804,
      "Ġfill": 2805,
      "Ġforget": 2806,
      "anation": 2807,
      "Ġmov": 2808,
      "Ġadditional": 2809,
      "Ġfostering": 2810,
      "Ġlikely": 2811,
      "ton": 2812,
      "Ġexcess": 2813,
      "amm": 2814,
      "iced": 2815,
      "Ġmathemat": 2816,
      "ended": 2817,
      "Ġrich": 2818,
      "Ġconfidence": 2819,
      "ulate": 2820,
      "Ġtom": 2821,
      "Ġeyes": 2822,
      "Ġgovernment": 2823,
      "Ġphen": 2824,
      "Ġrates": 2825,
      "Ġgoes": 2826,
      "Ġrate": 2827,
      "Ġheav": 2828,
      "ume": 2829,
      "Ġconduct": 2830,
      "Ġland": 2831,
      "Ġadop": 2832,
      "Ġpolitical": 2833,
      "ina": 2834,
      "ends": 2835,
      "Ġweak": 2836,
      "Ġrecently": 2837,
      "ening": 2838,
      "orrow": 2839,
      ",\"": 2840,
      "Ġplant": 2841,
      "Ġkid": 2842,
      "Ġcuri": 2843,
      "Ġnovel": 2844,
      "Ġvo": 2845,
      "Ġvers": 2846,
      "Ġsetting": 2847,
      "Ġroutine": 2848,
      "Ġworse": 2849,
      "whel": 2850,
      "Ġpeace": 2851,
      "Ġfeatures": 2852,
      "Ġsyn": 2853,
      "ator": 2854,
      "Ġdelve": 2855,
      "Ġwouldn": 2856,
      "Ġlosing": 2857,
      "Ġoverwhel": 2858,
      "Ġmechanisms": 2859,
      "yl": 2860,
      "osure": 2861,
      "izes": 2862,
      "Ġwind": 2863,
      "Ġconstruct": 2864,
      "Ġchap": 2865,
      "wise": 2866,
      "Ġterms": 2867,
      "Ġserious": 2868,
      "encies": 2869,
      "Ġhabits": 2870,
      "Ġiniti": 2871,
      "Ġeasier": 2872,
      "Ġongoing": 2873,
      "Ġitems": 2874,
      "Ġport": 2875,
      "Ġcaused": 2876,
      "Ġrob": 2877,
      "rie": 2878,
      "Ġnews": 2879,
      "Ġtypically": 2880,
      "Ġwast": 2881,
      "Ġargu": 2882,
      "Ġapply": 2883,
      "iding": 2884,
      "Ġspeak": 2885,
      "Ġhistorical": 2886,
      "Ġcore": 2887,
      "Ġprec": 2888,
      "Ġcompared": 2889,
      "):": 2890,
      "astic": 2891,
      "Ġfurthermore": 2892,
      "Ġtasks": 2893,
      "Ġrelevant": 2894,
      "Ġalthough": 2895,
      "Ġmovement": 2896,
      "Ġhelped": 2897,
      "Ġindepend": 2898,
      "Ġfish": 2899,
      "Ġspecies": 2900,
      "Ġconfident": 2901,
      "iveness": 2902,
      "Ġpromoting": 2903,
      "Ġdrin": 2904,
      "Ġplat": 2905,
      "Ġchemical": 2906,
      "ground": 2907,
      "Ġdepending": 2908,
      "Ġserve": 2909,
      "Ġbact": 2910,
      "Ġrange": 2911,
      "Ġhyd": 2912,
      "Ġfeedback": 2913,
      "Ġsharing": 2914,
      "Ġmedicine": 2915,
      "play": 2916,
      "do": 2917,
      "Ġje": 2918,
      "Ġcases": 2919,
      "Ġtrig": 2920,
      "Ġdynamics": 2921,
      "Ġpersist": 2922,
      "Ġstruggling": 2923,
      "Ġdeli": 2924,
      "Ġdemonstr": 2925,
      "reg": 2926,
      "Ġengaging": 2927,
      "Ġorganizations": 2928,
      "Ġmatters": 2929,
      "Ġdesigned": 2930,
      "Ġhalf": 2931,
      "Ġembra": 2932,
      "Ġdirectly": 2933,
      "Ġstudying": 2934,
      "Ġwondering": 2935,
      "Ġgreater": 2936,
      "Ġheard": 2937,
      "Ġgone": 2938,
      "Ġrisks": 2939,
      "ann": 2940,
      "Ġconsult": 2941,
      "Ġabove": 2942,
      "onse": 2943,
      "Ġmut": 2944,
      "osp": 2945,
      "Ġtiss": 2946,
      "Ġveget": 2947,
      "Ġbuy": 2948,
      "ites": 2949,
      "Ġboundaries": 2950,
      "acc": 2951,
      "ring": 2952,
      "Ġchallenging": 2953,
      "Ġclimate": 2954,
      "Ġpan": 2955,
      "Ġnational": 2956,
      "Ġschedule": 2957,
      "Ġgrowing": 2958,
      "Ġgets": 2959,
      "urity": 2960,
      "ged": 2961,
      "Ġcontemporary": 2962,
      "Ġmach": 2963,
      "Ġfamiliar": 2964,
      "ding": 2965,
      "term": 2966,
      "Ġtotal": 2967,
      "Ġnu": 2968,
      "Ġdistinct": 2969,
      "Ġdeserve": 2970,
      "Ġhelpful": 2971,
      "Ġcamp": 2972,
      "Ġtopics": 2973,
      "Ġsituations": 2974,
      "Ġupset": 2975,
      "world": 2976,
      "Ġrules": 2977,
      "cript": 2978,
      "Ġconflic": 2979,
      "rep": 2980,
      "Ġachie": 2981,
      "Ġdiscipl": 2982,
      "Ġquite": 2983,
      "erence": 2984,
      "athy": 2985,
      "Ġ15": 2986,
      "Ġresponse": 2987,
      "Ġlab": 2988,
      "Ġbond": 2989,
      "Ġimmedi": 2990,
      "Ġscared": 2991,
      "Ġoil": 2992,
      "Ġfoot": 2993,
      "Ġshows": 2994,
      "Ġtail": 2995,
      "Ġconsequences": 2996,
      "Ġcausing": 2997,
      "Ġbooks": 2998,
      "zy": 2999,
      "Ġplaces": 3000,
      "Ġcontent": 3001,
      "ura": 3002,
      "oking": 3003,
      "ave": 3004,
      "Ġincorporating": 3005,
      "Ġsimp": 3006,
      "Ġwilling": 3007,
      "Ġdiseases": 3008,
      "icial": 3009,
      "Ġsolid": 3010,
      "Ġlabor": 3011,
      "Ġdocu": 3012,
      "Ġhighlight": 3013,
      "like": 3014,
      "Ġsatis": 3015,
      "Ġforce": 3016,
      "before": 3017,
      "Ġuniversity": 3018,
      "Ġextrem": 3019,
      "Ġhandle": 3020,
      "Ġconclusion": 3021,
      "Ġprofession": 3022,
      "Ġperspective": 3023,
      "Ġcareer": 3024,
      "Ġfoster": 3025,
      "Ġcapable": 3026,
      "atively": 3027,
      "Ġchronic": 3028,
      "Ġrequired": 3029,
      "10": 3030,
      "Ġsess": 3031,
      "Ġep": 3032,
      "Ġtouch": 3033,
      "Ġinstru": 3034,
      "Ġsett": 3035,
      "Ġcred": 3036,
      "Ġchoices": 3037,
      "Ġapart": 3038,
      "Ġqual": 3039,
      "how": 3040,
      "Ġphenomen": 3041,
      "Ġjourn": 3042,
      "miss": 3043,
      "Ġapplication": 3044,
      "Ġpracticing": 3045,
      "Ġinfluence": 3046,
      "Ġsqu": 3047,
      "Ġinterpret": 3048,
      "Ġcountry": 3049,
      "Ġseeking": 3050,
      "orous": 3051,
      "Ġdetermine": 3052,
      "Ġalternative": 3053,
      "Ġinfect": 3054,
      "Ġreducing": 3055,
      "Ġahead": 3056,
      "Ġopp": 3057,
      "Ġoffers": 3058,
      "Ġarch": 3059,
      "Ġgenu": 3060,
      "Ġ30": 3061,
      "Ġvital": 3062,
      "Ġinvolve": 3063,
      "Ġblack": 3064,
      "Ġpowerful": 3065,
      "Ġplants": 3066,
      "Ġillness": 3067,
      "Ġfoundation": 3068,
      "Ġpolicies": 3069,
      "Ġimplications": 3070,
      "Ġopin": 3071,
      "Ġdry": 3072,
      "Ġearl": 3073,
      "entially": 3074,
      "Ġ200": 3075,
      "Ġ18": 3076,
      "Ġcosts": 3077,
      "Ġlat": 3078,
      "Ġhate": 3079,
      "Ġrecord": 3080,
      "Ġsociet": 3081,
      "Ġnerv": 3082,
      "section": 3083,
      "Ġtonight": 3084,
      "Ġterri": 3085,
      "Ġcorrect": 3086,
      "eral": 3087,
      "Ġdrink": 3088,
      "Ġthor": 3089,
      "rast": 3090,
      "Ġexpand": 3091,
      "ste": 3092,
      "Ġdemand": 3093,
      "Ġcognitive": 3094,
      "Ġlucky": 3095,
      "Ġknew": 3096,
      "Ġstories": 3097,
      "Ġmeant": 3098,
      "Ġvisit": 3099,
      "Ġvalid": 3100,
      "Ġhom": 3101,
      "Ġcold": 3102,
      "Ġvit": 3103,
      "Ġplans": 3104,
      "Ġhosp": 3105,
      "Ġforg": 3106,
      "Ġadvance": 3107,
      "room": 3108,
      "Ġoptimal": 3109,
      "Ġpassion": 3110,
      "Ġson": 3111,
      "Ġcateg": 3112,
      "Ġcultiv": 3113,
      "lling": 3114,
      "Ġgreen": 3115,
      "Ġdeath": 3116,
      "Ġfasc": 3117,
      "Ġbecoming": 3118,
      "Ġdecide": 3119,
      "Ġengagement": 3120,
      "Ġexpectations": 3121,
      "Ġwonder": 3122,
      "Ġmeasures": 3123,
      "herent": 3124,
      "hol": 3125,
      "Ġsepar": 3126,
      "Ġexamine": 3127,
      "Ġjoh": 3128,
      "Ġball": 3129,
      "Ġprograms": 3130,
      "Ġexisting": 3131,
      "dle": 3132,
      "Ġindic": 3133,
      "ample": 3134,
      "Ġparts": 3135,
      "Ġattack": 3136,
      "Ġpick": 3137,
      "olving": 3138,
      "Ġauthor": 3139,
      "icient": 3140,
      "Ġfive": 3141,
      "Ġadvanced": 3142,
      "ength": 3143,
      "Ġshaping": 3144,
      "ows": 3145,
      "Ġnervous": 3146,
      "Ġdin": 3147,
      "Ġdress": 3148,
      "Ġoptim": 3149,
      "Ġadvent": 3150,
      "Ġpet": 3151,
      "Ġviol": 3152,
      "osph": 3153,
      "Ġradi": 3154,
      "Ġapplying": 3155,
      "Ġsad": 3156,
      "Ġnote": 3157,
      "urs": 3158,
      "Ġhyp": 3159,
      "Ġmix": 3160,
      "amin": 3161,
      "Ġfocused": 3162,
      "Ġresili": 3163,
      "Ġattract": 3164,
      "Ġdou": 3165,
      "Ġrapid": 3166,
      "oles": 3167,
      "Ġcry": 3168,
      "Ġphone": 3169,
      "Ġusual": 3170,
      "Ġscenari": 3171,
      "Ġri": 3172,
      "Ġscholars": 3173,
      "Ġeuro": 3174,
      "Ġnutr": 3175,
      "Ġproperties": 3176,
      "Ġmuscles": 3177,
      "Ġheat": 3178,
      "Ġnumbers": 3179,
      "Ġbirth": 3180,
      "Ġtaken": 3181,
      "Ġflo": 3182,
      "Ġhot": 3183,
      "Ġcook": 3184,
      "Ġrespond": 3185,
      "Ġleaders": 3186,
      "Ġox": 3187,
      "Ġdifferences": 3188,
      "body": 3189,
      "Ġcomplete": 3190,
      "odies": 3191,
      "Ġarr": 3192,
      "Ġonto": 3193,
      "Ġexperiment": 3194,
      "Ġwhenever": 3195,
      "Ġsmart": 3196,
      "Ġtemperature": 3197,
      "Ġmemory": 3198,
      "Ġnoticed": 3199,
      "Ġdim": 3200,
      "cular": 3201,
      "making": 3202,
      "omet": 3203,
      "Ġanimal": 3204,
      "Ġexamining": 3205,
      "eration": 3206,
      "sp": 3207,
      "Ġphil": 3208,
      "Ġearth": 3209,
      "Ġservice": 3210,
      "comfort": 3211,
      "Ġtheoretical": 3212,
      "irical": 3213,
      "Ġcannot": 3214,
      "cal": 3215,
      "Ġrelig": 3216,
      "Ġflex": 3217,
      "Ġobserv": 3218,
      "Ġinitial": 3219,
      "Ġwar": 3220,
      "abilities": 3221,
      "Ġguys": 3222,
      "Ġscientific": 3223,
      "Ġconcent": 3224,
      "Ġack": 3225,
      "Ġsevere": 3226,
      "Ġsays": 3227,
      "Ġexhib": 3228,
      "me": 3229,
      "ime": 3230,
      "Ġprojects": 3231,
      "Ġacknow": 3232,
      "Ġthorough": 3233,
      "Ġoffering": 3234,
      "Ġfear": 3235,
      "Ġresponsibility": 3236,
      "Ġrepl": 3237,
      "Ġexposure": 3238,
      "Ġbehaviors": 3239,
      ".âĢĿ": 3240,
      "Ġrepresents": 3241,
      "Ġfront": 3242,
      "Ġmagn": 3243,
      "Ġcarefully": 3244,
      "Ġtrends": 3245,
      "Ġsurface": 3246,
      "comp": 3247,
      "Ġlands": 3248,
      "Ġafford": 3249,
      "Ġder": 3250,
      "Ġlegal": 3251,
      "Ġearlier": 3252,
      "Ġdark": 3253,
      "ode": 3254,
      "crib": 3255,
      "Ġmaxim": 3256,
      "Ġplays": 3257,
      "Ġbelief": 3258,
      "Ġallowing": 3259,
      "Ġvary": 3260,
      "Ġlack": 3261,
      "Ġlooked": 3262,
      "Ġprioritize": 3263,
      "Ġangry": 3264,
      "Ġinternational": 3265,
      "Ġconsidering": 3266,
      "rew": 3267,
      "Ġbot": 3268,
      "ternal": 3269,
      "Ġsent": 3270,
      "Ġadvant": 3271,
      "Ġplatform": 3272,
      "Ġconversation": 3273,
      "Ġpict": 3274,
      "Ġchoice": 3275,
      "Ġcarry": 3276,
      "Ġsil": 3277,
      "Ġfinal": 3278,
      "ores": 3279,
      "Ġincredible": 3280,
      "umb": 3281,
      "Ġstuck": 3282,
      "ox": 3283,
      "expl": 3284,
      "Ġconstitut": 3285,
      "ned": 3286,
      "Ġpatience": 3287,
      "Ġpredict": 3288,
      "rs": 3289,
      "Ġsimply": 3290,
      "gment": 3291,
      "inate": 3292,
      "Ġethical": 3293,
      "Ġintricate": 3294,
      "Ġbat": 3295,
      "Ġdriving": 3296,
      "Ġliterature": 3297,
      "Ġclothes": 3298,
      "Ġchanging": 3299,
      "Ġwhite": 3300,
      "Ġabilities": 3301,
      "Ġpopulation": 3302,
      "oman": 3303,
      "Ġpark": 3304,
      "bor": 3305,
      "ilt": 3306,
      "Ġinvolving": 3307,
      "Ġtelling": 3308,
      "Ġliter": 3309,
      "Ġmeeting": 3310,
      "Ġproced": 3311,
      "Ġrein": 3312,
      "Ġsigns": 3313,
      "Ġenables": 3314,
      "fl": 3315,
      "Ġthereby": 3316,
      "Ġgenetic": 3317,
      "Ġsupposed": 3318,
      "ients": 3319,
      "Ġmal": 3320,
      "cious": 3321,
      "Ġbackground": 3322,
      "cohol": 3323,
      "ote": 3324,
      "Ġyield": 3325,
      "Ġprepar": 3326,
      "Ġgod": 3327,
      "Ġtransport": 3328,
      "iet": 3329,
      "Ġtown": 3330,
      "Ġla": 3331,
      "Ġhappening": 3332,
      "Ġdiscover": 3333,
      "Ġdest": 3334,
      "ery": 3335,
      "Ġorganization": 3336,
      "vered": 3337,
      "while": 3338,
      "Ġsugar": 3339,
      "Ġcalcul": 3340,
      "Ġeurope": 3341,
      "Ġpen": 3342,
      "ellig": 3343,
      "Ġsave": 3344,
      "*:": 3345,
      "aim": 3346,
      "plish": 3347,
      "Ġspir": 3348,
      "Ġinformed": 3349,
      "Ġcand": 3350,
      "Ġsequ": 3351,
      "Ġment": 3352,
      "Ġsmaller": 3353,
      "Ġreli": 3354,
      "Ġgym": 3355,
      "Ġaccomplish": 3356,
      "Ġdebates": 3357,
      "Ġgradually": 3358,
      "iny": 3359,
      "Ġidentity": 3360,
      "Ġtax": 3361,
      "Ġscientists": 3362,
      "Ġtoward": 3363,
      "bon": 3364,
      "Ġlifest": 3365,
      "Ġcele": 3366,
      "eds": 3367,
      "Ġaren": 3368,
      "Ġconversations": 3369,
      "omy": 3370,
      "Ġenter": 3371,
      "af": 3372,
      "Ġfeet": 3373,
      "urance": 3374,
      "Ġdial": 3375,
      "Ġing": 3376,
      "Ġstage": 3377,
      "Ġtruly": 3378,
      "osition": 3379,
      "Ġexperienced": 3380,
      "Ġpack": 3381,
      "Ġnotice": 3382,
      "Ġintellig": 3383,
      "Ġsect": 3384,
      "Ġbreathing": 3385,
      "resp": 3386,
      "Ġrigorous": 3387,
      "Ġgender": 3388,
      "Ġtrip": 3389,
      "Ġspread": 3390,
      "ont": 3391,
      "Ġchapter": 3392,
      "\\_": 3393,
      "Ġcounter": 3394,
      "Ġindustry": 3395,
      "hes": 3396,
      "Ġpartner": 3397,
      "Ġstudent": 3398,
      "rim": 3399,
      "usive": 3400,
      "ope": 3401,
      "Ġ:": 3402,
      "Ġtalked": 3403,
      "Ġsurv": 3404,
      "Ġhell": 3405,
      "cons": 3406,
      "Ġcongr": 3407,
      "Ġstraight": 3408,
      "Ġconnection": 3409,
      "abet": 3410,
      "Ġexternal": 3411,
      "cape": 3412,
      "Ġwaste": 3413,
      "Ġobser": 3414,
      "Ġanswer": 3415,
      "Ġalcohol": 3416,
      "Ġtests": 3417,
      "Ġneuro": 3418,
      "Ġcountries": 3419,
      "Ġknows": 3420,
      "Ġsustainable": 3421,
      "Ġneigh": 3422,
      "Ġdisorder": 3423,
      "Ġmeal": 3424,
      "Ġfascinating": 3425,
      "Ġlines": 3426,
      "ik": 3427,
      "Ġalg": 3428,
      "Ġwall": 3429,
      "Ġmovements": 3430,
      "Ġclasses": 3431,
      "Ġitself": 3432,
      "Ġaudi": 3433,
      "Ġkill": 3434,
      "Ġempirical": 3435,
      "Ġthreat": 3436,
      "Ġmeals": 3437,
      "Ġforever": 3438,
      "Ġadvoc": 3439,
      "Ġdisapp": 3440,
      "Ġtomorrow": 3441,
      "lied": 3442,
      "ensity": 3443,
      "ought": 3444,
      "Ġsmooth": 3445,
      "Ġfully": 3446,
      "Ġacqu": 3447,
      "Ġhob": 3448,
      "Ġrepe": 3449,
      "Ġcoach": 3450,
      "Ġguid": 3451,
      "Ġlog": 3452,
      "Ġbill": 3453,
      "Ġgames": 3454,
      "Ġbiology": 3455,
      "Ġhonestly": 3456,
      "Ġwake": 3457,
      "Ġru": 3458,
      "Ġmother": 3459,
      "Ġdinner": 3460,
      "Ġimproved": 3461,
      "Ġho": 3462,
      "ister": 3463,
      "Ġdang": 3464,
      "Ġfell": 3465,
      "Ġpoll": 3466,
      "Ġsud": 3467,
      "Ġmindful": 3468,
      "enty": 3469,
      "Ġfields": 3470,
      "Ġestablished": 3471,
      "Ġrecognize": 3472,
      "Ġcover": 3473,
      "Ġguidance": 3474,
      "conclusion": 3475,
      "ressed": 3476,
      "Ġresulting": 3477,
      "ancy": 3478,
      "Ġcommunicate": 3479,
      "iction": 3480,
      "Ġinherent": 3481,
      "Ġprepare": 3482,
      "Ġprofessionals": 3483,
      "Ġanalyze": 3484,
      "Ġestim": 3485,
      "Ġotherwise": 3486,
      "asons": 3487,
      "ibly": 3488,
      "Ġexcell": 3489,
      "ison": 3490,
      "Ġasked": 3491,
      "Ġclearly": 3492,
      "ira": 3493,
      "Ġpurpose": 3494,
      "Ġimprovement": 3495,
      "Ġlarger": 3496,
      "Ġdigital": 3497,
      "Ġimproving": 3498,
      "Ġtraum": 3499,
      "Ġensures": 3500,
      "Ġwash": 3501,
      "Ġcollaboration": 3502,
      "Ġexpression": 3503,
      "Ġpoly": 3504,
      "Ġenab": 3505,
      "ival": 3506,
      "Ġaimed": 3507,
      "Ġwear": 3508,
      "Ġgas": 3509,
      "Ġdeveloped": 3510,
      "Ġdetails": 3511,
      "Ġroles": 3512,
      "ains": 3513,
      "Ġpoor": 3514,
      "Ġstandard": 3515,
      "Ġphilos": 3516,
      "Ġstyle": 3517,
      "================": 3518,
      "Ġsolution": 3519,
      "ured": 3520,
      "Ġcentral": 3521,
      "under": 3522,
      "force": 3523,
      "ibilities": 3524,
      "Ġmeaningful": 3525,
      "Ġrefers": 3526,
      "ler": 3527,
      "Ġsexual": 3528,
      "Ġinfection": 3529,
      "Ġmistakes": 3530,
      "Ġpreferences": 3531,
      "Ġmedication": 3532,
      "iot": 3533,
      "Ġciv": 3534,
      "Ġmotivation": 3535,
      "umption": 3536,
      "eff": 3537,
      "dis": 3538,
      "Ġslowly": 3539,
      "Ġlength": 3540,
      "Ġnutri": 3541,
      "Ġsix": 3542,
      "Ġremind": 3543,
      "ae": 3544,
      "Ġempathy": 3545,
      "atulations": 3546,
      "Ġregul": 3547,
      "Ġpossess": 3548,
      "Ġrand": 3549,
      "Ġunited": 3550,
      "Ġweather": 3551,
      "my": 3552,
      "Ġstim": 3553,
      "Ġmanaging": 3554,
      "Ġnor": 3555,
      "ucle": 3556,
      "ogen": 3557,
      "Ġsudden": 3558,
      "Ġboy": 3559,
      "Ġtherefore": 3560,
      "Ġhar": 3561,
      "Ġlifestyle": 3562,
      "Ġprovided": 3563,
      "Ġhoping": 3564,
      "Ġcalor": 3565,
      "Ġsubsequ": 3566,
      "gi": 3567,
      "Ġbase": 3568,
      "Ġdealing": 3569,
      "Ġdisorders": 3570,
      "thes": 3571,
      "Ġmaster": 3572,
      "Ġvirus": 3573,
      "Ġcapac": 3574,
      "Ġgraph": 3575,
      "rict": 3576,
      "Ġacid": 3577,
      "raction": 3578,
      "Ġroot": 3579,
      "Ġspeaking": 3580,
      "Ġhabit": 3581,
      "Ġobjectives": 3582,
      "Ġword": 3583,
      "Ġresilience": 3584,
      "Ġled": 3585,
      "Ġproduce": 3586,
      "fer": 3587,
      "Ġawareness": 3588,
      "Ġjournal": 3589,
      "Ġdate": 3590,
      "icious": 3591,
      "Ġsty": 3592,
      "Ġwrite": 3593,
      "Ġinnovation": 3594,
      "ops": 3595,
      "Ġcoff": 3596,
      "Ġdoctors": 3597,
      "Ġforces": 3598,
      "Ġclo": 3599,
      "Ġann": 3600,
      "ero": 3601,
      "Ġjoin": 3602,
      "Ġsurger": 3603,
      "Ġbudget": 3604,
      "Ġdead": 3605,
      "Ġhospital": 3606,
      "Ġdecre": 3607,
      "Ġten": 3608,
      "Ġerr": 3609,
      "Ġjustice": 3610,
      "Ġwatching": 3611,
      "Ġsource": 3612,
      "land": 3613,
      "Ġinterv": 3614,
      "Ġsurpr": 3615,
      "abetes": 3616,
      "Ġmood": 3617,
      "Ġresponses": 3618,
      "Ġbelow": 3619,
      "Ġmag": 3620,
      "Ġmiddle": 3621,
      "Ġinfluen": 3622,
      "Ġanalyzing": 3623,
      "Ġpotentially": 3624,
      "Ġsettings": 3625,
      "Ġaccurate": 3626,
      "lled": 3627,
      "ressive": 3628,
      "Ġenvironments": 3629,
      "Ġpurch": 3630,
      "Ġpartners": 3631,
      "Ġmit": 3632,
      "Ġpercent": 3633,
      "ened": 3634,
      "Ġprice": 3635,
      "Ġvide": 3636,
      "Ġtechnique": 3637,
      "Ġefficiency": 3638,
      "Ã©": 3639,
      "Ġprepared": 3640,
      "Ġgenerally": 3641,
      "Ġacademic": 3642,
      "Ġremo": 3643,
      "ees": 3644,
      "50": 3645,
      "oses": 3646,
      "Ġcircum": 3647,
      "xic": 3648,
      "Ġpursu": 3649,
      "ray": 3650,
      "Ġminimize": 3651,
      "Ġleaving": 3652,
      "hips": 3653,
      "Ġguy": 3654,
      "Ġarg": 3655,
      "Ġcoffee": 3656,
      "Ġpounds": 3657,
      "Ġaccordingly": 3658,
      "onal": 3659,
      "Ġ12": 3660,
      "ades": 3661,
      "Ġdocument": 3662,
      "$$": 3663,
      "raid": 3664,
      "ightly": 3665,
      "ingu": 3666,
      "Ġcenter": 3667,
      "Ġputting": 3668,
      "Ġdemonstrate": 3669,
      "Ġproperly": 3670,
      "ware": 3671,
      "Ġrequirements": 3672,
      "Ġevolution": 3673,
      "Ġdiscussions": 3674,
      "rac": 3675,
      "Ġincreasingly": 3676,
      "Ġarticle": 3677,
      "Ġhumans": 3678,
      "ses": 3679,
      "Ġexe": 3680,
      "Ġclinical": 3681,
      "Ġworkout": 3682,
      "Ġintroduction": 3683,
      "Ġconstantly": 3684,
      "Ġemotion": 3685,
      "Ġtruth": 3686,
      "Ġexch": 3687,
      "__": 3688,
      "Ġafraid": 3689,
      "Ġpiece": 3690,
      "âĪ": 3691,
      "Ġ/": 3692,
      "ana": 3693,
      "Ġrandom": 3694,
      "Ġhorm": 3695,
      "Ġcreative": 3696,
      "minist": 3697,
      "bra": 3698,
      "Ġhoney": 3699,
      "Ġolder": 3700,
      "Ġexpert": 3701,
      "Ġtechnologies": 3702,
      "bb": 3703,
      "Ġpregn": 3704,
      "Ġdrinking": 3705,
      "Ġsleeping": 3706,
      "Ġtrade": 3707,
      "Ġgrand": 3708,
      "ii": 3709,
      "Ġresistance": 3710,
      "Ġresource": 3711,
      "Ġincome": 3712,
      "Ġapproxim": 3713,
      "Ġconsidered": 3714,
      "Ġconsequently": 3715,
      "Ġdrive": 3716,
      "ils": 3717,
      "Ġlimited": 3718,
      "Ġfire": 3719,
      "once": 3720,
      "Ġcomputer": 3721,
      "ĠâĢĶ": 3722,
      "Ġmovie": 3723,
      "Ġequip": 3724,
      "Ġteeth": 3725,
      "Ġrealized": 3726,
      "Ġmention": 3727,
      "icking": 3728,
      "Ġvent": 3729,
      "Ġdiabetes": 3730,
      "Ġvegetables": 3731,
      "roduction": 3732,
      "Ġcongratulations": 3733,
      "Ġreasons": 3734,
      "Ġinstruct": 3735,
      "icit": 3736,
      "Ġnavigate": 3737,
      "urally": 3738,
      "Ġcompar": 3739,
      "Ġdialog": 3740,
      "Ġcutting": 3741,
      "Ġbacteria": 3742,
      "Ġassign": 3743,
      "Ġlink": 3744,
      "respond": 3745,
      "airs": 3746,
      "Ġequal": 3747,
      "Ġstick": 3748,
      "Ġreality": 3749,
      "po": 3750,
      "Ġourselves": 3751,
      "Ġwid": 3752,
      "Ġrid": 3753,
      "Ġdispar": 3754,
      "Ġprotection": 3755,
      "anging": 3756,
      "pper": 3757,
      "lim": 3758,
      "Ġparam": 3759,
      "Ġreduced": 3760,
      "Ġcoord": 3761,
      "rection": 3762,
      "Ġwellbeing": 3763,
      "ocol": 3764,
      "abol": 3765,
      "Ġtask": 3766,
      "Ġgard": 3767,
      "Ġmad": 3768,
      "Ġunf": 3769,
      "Ġexecut": 3770,
      "Ġnutrition": 3771,
      "orith": 3772,
      "Ġrace": 3773,
      "Ġexcellent": 3774,
      "Ġpopulations": 3775,
      "Ġsecurity": 3776,
      "Ġwanting": 3777,
      "Ġinternal": 3778,
      "Ġanyway": 3779,
      "Ġlon": 3780,
      "Ġcorrespond": 3781,
      "Ġfrequently": 3782,
      "Ġjohn": 3783,
      "Ġengineering": 3784,
      "Ġobtain": 3785,
      "Ġcooking": 3786,
      "Ġthri": 3787,
      "Ġapplied": 3788,
      "Ġalgorith": 3789,
      "dom": 3790,
      "Ġrefer": 3791,
      "Ġcycle": 3792,
      "Ġenhancing": 3793,
      "Ġbroader": 3794,
      "Ġspeed": 3795,
      "!!": 3796,
      "Ġnetworks": 3797,
      "Ġscale": 3798,
      "Ġincreases": 3799,
      "Ġcritically": 3800,
      "Ġimmune": 3801,
      "Ġbrush": 3802,
      "Ġrobust": 3803,
      "Ġreturn": 3804,
      "Ġenabling": 3805,
      "part": 3806,
      "explanation": 3807,
      "Ġswim": 3808,
      "Ġcurrently": 3809,
      "ensions": 3810,
      "etics": 3811,
      "unit": 3812,
      "Ġreward": 3813,
      "lies": 3814,
      "Ġturned": 3815,
      "Ġidentifying": 3816,
      "aa": 3817,
      "ultane": 3818,
      "when": 3819,
      "Ġabsor": 3820,
      "Ġreveal": 3821,
      "Ġhappiness": 3822,
      "Ġlun": 3823,
      "Ġinput": 3824,
      "Ġtissue": 3825,
      "Ġenable": 3826,
      "Ġparticipants": 3827,
      "Ġsessions": 3828,
      "Ġtesting": 3829,
      "Ġdrug": 3830,
      "ching": 3831,
      "ution": 3832,
      "Ġwoman": 3833,
      "Ġhost": 3834,
      "Ġvict": 3835,
      "Ġheight": 3836,
      "Ġdistribution": 3837,
      "Ġconsistently": 3838,
      "tr": 3839,
      "Ġcleaning": 3840,
      "inally": 3841,
      "Ġamb": 3842,
      "Ġamp": 3843,
      "Ġadults": 3844,
      "Ġwebs": 3845,
      ",âĢĿ": 3846,
      "Ġmonitor": 3847,
      "Ġdisp": 3848,
      "Ġnucle": 3849,
      "Ġvoice": 3850,
      "orial": 3851,
      "Ġstability": 3852,
      "bies": 3853,
      "Ġcharacteristics": 3854,
      "ze": 3855,
      "Ġfather": 3856,
      "ests": 3857,
      "Ġdiversity": 3858,
      "vey": 3859,
      "Ġnecessit": 3860,
      "Ġdevices": 3861,
      "Ġfrustrating": 3862,
      "Ġbodies": 3863,
      "Ġcapital": 3864,
      "Ġroad": 3865,
      "Ġsurgery": 3866,
      "Ġplenty": 3867,
      "Ġmanip": 3868,
      "Ġfamil": 3869,
      "ups": 3870,
      "ography": 3871,
      "Ġimmediately": 3872,
      "Ġsearch": 3873,
      "tenance": 3874,
      "amed": 3875,
      "rief": 3876,
      "Ġlies": 3877,
      "Ġstaying": 3878,
      "Ġrecognizing": 3879,
      "fill": 3880,
      "Ġstatist": 3881,
      "Ġsimultane": 3882,
      "Ġlimitations": 3883,
      "Ġstret": 3884,
      "Ġperiods": 3885,
      "osity": 3886,
      "Ġparties": 3887,
      "why": 3888,
      "Ġlocation": 3889,
      "Ġstruggle": 3890,
      "certain": 3891,
      "Ġbenefit": 3892,
      "ban": 3893,
      "sc": 3894,
      "Ġhearing": 3895,
      "Ġconc": 3896,
      "Ġstandards": 3897,
      "Ġimpacts": 3898,
      "lbs": 3899,
      "Ġdance": 3900,
      "ley": 3901,
      "Ġinjury": 3902,
      "Ġproperty": 3903,
      "Ġhol": 3904,
      "Ġwaiting": 3905,
      "Ġprefer": 3906,
      "Ġpublish": 3907,
      "compass": 3908,
      "Ġice": 3909,
      "ifications": 3910,
      "Ġframeworks": 3911,
      "Ġclar": 3912,
      "Ġfault": 3913,
      "Ġconsumption": 3914,
      "Ġprompt": 3915,
      "ented": 3916,
      "iving": 3917,
      "ruction": 3918,
      "Ġreactions": 3919,
      "Ġrealize": 3920,
      "Ġtreatments": 3921,
      "Ġefficient": 3922,
      "Ġcit": 3923,
      "Ġoriginal": 3924,
      "uries": 3925,
      "Ġscr": 3926,
      "ails": 3927,
      "Ġcommitment": 3928,
      "Ġvacc": 3929,
      "Ġincludes": 3930,
      "Ġ,": 3931,
      "Ġmouth": 3932,
      "ike": 3933,
      "30": 3934,
      "Ġbecame": 3935,
      "Ġintelligence": 3936,
      "Ġevaluate": 3937,
      "Ġequation": 3938,
      "Ġalloc": 3939,
      "Ġinvestigation": 3940,
      "iology": 3941,
      "Ġcouple": 3942,
      "Ġcarbon": 3943,
      "Ġfactor": 3944,
      "gest": 3945,
      "icians": 3946,
      "Ġdrawing": 3947,
      "what": 3948,
      "Ġstom": 3949,
      "Ġmaintenance": 3950,
      "Ġstre": 3951,
      "Ġdiagnosis": 3952,
      "another": 3953,
      "Ġbrings": 3954,
      "osen": 3955,
      "Ġlaugh": 3956,
      "Ġign": 3957,
      "Ġhuge": 3958,
      "Ġboard": 3959,
      "enses": 3960,
      "Ġeasily": 3961,
      "Ġegg": 3962,
      "Ġconv": 3963,
      "Ġmillion": 3964,
      "Ġpieces": 3965,
      "Ġmachine": 3966,
      "Ġsem": 3967,
      "Ġjump": 3968,
      "Ġ100": 3969,
      "mental": 3970,
      "Ġweigh": 3971,
      "Ġelectr": 3972,
      "Ġnarr": 3973,
      "Ġpractical": 3974,
      "Ġstronger": 3975,
      "rial": 3976,
      "Ġafric": 3977,
      "icated": 3978,
      "bre": 3979,
      "aly": 3980,
      "Ġvariables": 3981,
      "Ġformul": 3982,
      "Ġmast": 3983,
      "Ġinequ": 3984,
      "Ġobjects": 3985,
      "ager": 3986,
      "Ġplatforms": 3987,
      "Ġclaim": 3988,
      "Ġbeliefs": 3989,
      "cient": 3990,
      "Ġaffected": 3991,
      "itis": 3992,
      "Ġhung": 3993,
      "Ġphenomena": 3994,
      "Ġprimarily": 3995,
      "Ġdynamic": 3996,
      "oud": 3997,
      "Ġlaws": 3998,
      "Ġupd": 3999,
      "rown": 4000,
      "Ġoccurs": 4001,
      "Ġcam": 4002,
      "haust": 4003,
      "Ġpla": 4004,
      "Ġvolun": 4005,
      "istry": 4006,
      "cked": 4007,
      "Ġcontinued": 4008,
      "ork": 4009,
      "idents": 4010,
      "Ġast": 4011,
      "ventions": 4012,
      "Ġnetwork": 4013,
      "Ġproteins": 4014,
      "Ġgently": 4015,
      "Ġcreativity": 4016,
      "Ġshouldn": 4017,
      "Ġmoments": 4018,
      "Ġdedication": 4019,
      "cop": 4020,
      "arian": 4021,
      "Ġfing": 4022,
      "Ġwild": 4023,
      "mission": 4024,
      "Ġvul": 4025,
      "Ġsports": 4026,
      "Ġrat": 4027,
      "Ġexhaust": 4028,
      "Ġserves": 4029,
      "Ġsymb": 4030,
      "Ġquiet": 4031,
      "Ġheavy": 4032,
      "Ġstomach": 4033,
      "Ġallerg": 4034,
      "Ġexcessive": 4035,
      "Ġcalorie": 4036,
      "bt": 4037,
      "Ġmob": 4038,
      "Ġinnovative": 4039,
      "Ġdetect": 4040,
      "Ġcolors": 4041,
      "Ġfacilitate": 4042,
      "you": 4043,
      "Ġrad": 4044,
      "Ġformation": 4045,
      "Ġmutual": 4046,
      "Ġrot": 4047,
      "Ġfaced": 4048,
      "Ġchrist": 4049,
      "understand": 4050,
      "Ġconsideration": 4051,
      "Ġcircumst": 4052,
      "life": 4053,
      "Ġtut": 4054,
      "Ġthird": 4055,
      "Ġrely": 4056,
      "Ġcultures": 4057,
      "Ġstrategy": 4058,
      "Ġappreciation": 4059,
      ".)": 4060,
      "Ġadding": 4061,
      "Ġargue": 4062,
      "Ġgained": 4063,
      "Ġsong": 4064,
      "Ġcivil": 4065,
      "Ġspot": 4066,
      "?\"": 4067,
      "Ġutilize": 4068,
      "Ġposit": 4069,
      "Ġfed": 4070,
      "Ġcapacity": 4071,
      "Ġeveryday": 4072,
      "Ġemerging": 4073,
      "Ġscenarios": 4074,
      "Ġagg": 4075,
      "Ġseason": 4076,
      "Ġaverage": 4077,
      "Ġsupportive": 4078,
      "Ġsuc": 4079,
      "Ġleads": 4080,
      "Ġremove": 4081,
      "Ġcontributing": 4082,
      "ervation": 4083,
      "Ġbul": 4084,
      "Ġcloser": 4085,
      "through": 4086,
      "Ġfem": 4087,
      "Ġyog": 4088,
      "****": 4089,
      "zz": 4090,
      "Ġcrazy": 4091,
      "199": 4092,
      "Ġpsychology": 4093,
      "Ġdegree": 4094,
      "weight": 4095,
      "hyd": 4096,
      "Ġdirection": 4097,
      "Ġsubsequent": 4098,
      "Ġsou": 4099,
      "Ġweird": 4100,
      "Ġsupporting": 4101,
      "Ġconver": 4102,
      "Ġisol": 4103,
      "Ġoption": 4104,
      "Ġwants": 4105,
      "Ġearn": 4106,
      "Ġadopt": 4107,
      "Ġadventure": 4108,
      "Ġscreen": 4109,
      "Ġgrate": 4110,
      "Ġdiscussion": 4111,
      "Ġcurious": 4112,
      "Ġsuitable": 4113,
      "Ġphysics": 4114,
      "Ġnoise": 4115,
      "Ġtransl": 4116,
      "Ġstatus": 4117,
      "Ġselection": 4118,
      "Ġreco": 4119,
      "Ġteacher": 4120,
      "ception": 4121,
      "Ġmotion": 4122,
      "iling": 4123,
      "Ġseries": 4124,
      "terday": 4125,
      "Ġsocietal": 4126,
      "Ġconcl": 4127,
      "Ġconcerning": 4128,
      "ev": 4129,
      "}{": 4130,
      "Ġbag": 4131,
      "Ġappearance": 4132,
      "Ġmeditation": 4133,
      "place": 4134,
      "Ġhobbies": 4135,
      "Ġsimilarly": 4136,
      "Ġbes": 4137,
      "Ġchanged": 4138,
      "Ġfamilies": 4139,
      "Ġgrateful": 4140,
      "Ġdive": 4141,
      "Ġyesterday": 4142,
      "Ġsometime": 4143,
      "Ġvulner": 4144,
      "Ġexperimental": 4145,
      "Ġsignificance": 4146,
      "Ġvision": 4147,
      "Ġbarri": 4148,
      "Ġchest": 4149,
      "Ġclub": 4150,
      "Ġsoil": 4151,
      "Ġadequ": 4152,
      "lection": 4153,
      "Ġtailored": 4154,
      "Ġdepend": 4155,
      "Ġsimultaneously": 4156,
      "Ġvac": 4157,
      "Ġsets": 4158,
      "Ġcircumstances": 4159,
      "Ġasleep": 4160,
      "Ġadminist": 4161,
      "Ġdevelopments": 4162,
      "Ġcardio": 4163,
      "Ġstatistical": 4164,
      "Ġanytime": 4165,
      "Ġreduces": 4166,
      "Ġoffice": 4167,
      "Ġspirit": 4168,
      "Ġinterview": 4169,
      "Ġingred": 4170,
      "Ġsucceed": 4171,
      "Ġequipment": 4172,
      "ony": 4173,
      "rought": 4174,
      "Ġscal": 4175,
      "but": 4176,
      "Ġmanu": 4177,
      "Ġcomplexity": 4178,
      "Ġfruits": 4179,
      "Ġbott": 4180,
      "eling": 4181,
      "Ġmoved": 4182,
      "vis": 4183,
      "fic": 4184,
      "Ġoxy": 4185,
      "aff": 4186,
      "Ġrule": 4187,
      "used": 4188,
      "Ġoverview": 4189,
      "Ġaffecting": 4190,
      "âĢĵ": 4191,
      "Ġdescrib": 4192,
      "Ġtip": 4193,
      "Ġchosen": 4194,
      "Ġanalyses": 4195,
      "Ġslightly": 4196,
      "Ġprocessing": 4197,
      "Ġpros": 4198,
      "Ġconsistency": 4199,
      "Ġlinear": 4200,
      "Ġsubstant": 4201,
      "frac": 4202,
      "Ġdemoc": 4203,
      "Ġgro": 4204,
      "Ġinstitutions": 4205,
      "Ġfailure": 4206,
      "Ġpow": 4207,
      "Ġcontinuous": 4208,
      "Ġattend": 4209,
      "ĠčĊ": 4210,
      "Ġdialogue": 4211,
      "igen": 4212,
      "Ġminute": 4213,
      "Ġmemories": 4214,
      "Ġburn": 4215,
      "Ġsus": 4216,
      "Ġ16": 4217,
      "Ġgenuine": 4218,
      "aks": 4219,
      "Ġattemp": 4220,
      "Ġimplementing": 4221,
      "ball": 4222,
      "Ġsupply": 4223,
      "Ġfunctional": 4224,
      "Ġinteraction": 4225,
      "Ġelectric": 4226,
      "Ġmoist": 4227,
      "Ġdro": 4228,
      "Ġrequiring": 4229,
      "dy": 4230,
      "Ġpaying": 4231,
      "Ġhealing": 4232,
      "Ġphase": 4233,
      "Ġreaction": 4234,
      "18": 4235,
      "odes": 4236,
      "Ġmostly": 4237,
      "ift": 4238,
      "oke": 4239,
      "Ġsecure": 4240,
      "Ġdepart": 4241,
      "Ġblue": 4242,
      "Ġvolume": 4243,
      "Ġmanufact": 4244,
      "band": 4245,
      "Ġamerica": 4246,
      "Ġrecovery": 4247,
      "Ġsummer": 4248,
      "Ġcredit": 4249,
      "Ġstrengths": 4250,
      "esome": 4251,
      "Ġharder": 4252,
      "Ġdrugs": 4253,
      "vi": 4254,
      "eli": 4255,
      "Ġtherapist": 4256,
      "Ġrelaxation": 4257,
      "Ġpersonality": 4258,
      "Ġdistract": 4259,
      "Ġsecret": 4260,
      "rich": 4261,
      "anna": 4262,
      "Ġmarketing": 4263,
      "Ġcontract": 4264,
      "Ġauthent": 4265,
      "uration": 4266,
      "Ġmetabol": 4267,
      "Ġfollowed": 4268,
      "Ġuncertain": 4269,
      "Ġspect": 4270,
      "itative": 4271,
      "Ġcollective": 4272,
      "Ġseriously": 4273,
      "sect": 4274,
      "aught": 4275,
      "Ġmac": 4276,
      "Ġintel": 4277,
      "Ġfluid": 4278,
      "ute": 4279,
      "Ġtransfer": 4280,
      "unk": 4281,
      "Ġschools": 4282,
      "Ġsymbol": 4283,
      "Ġeducational": 4284,
      "Ġfalling": 4285,
      "Ġinflamm": 4286,
      "coming": 4287,
      "Ġfinished": 4288,
      "ech": 4289,
      "Ġfra": 4290,
      "Ġactively": 4291,
      "Ġintake": 4292,
      "Ġdogs": 4293,
      "cribe": 4294,
      "gers": 4295,
      "Ġvariety": 4296,
      "Ġideal": 4297,
      "eed": 4298,
      "Ġnaturally": 4299,
      "Ġphysically": 4300,
      "Ġsweetie": 4301,
      "Ġcomprehension": 4302,
      "Ġchick": 4303,
      "Ġopinion": 4304,
      "Ġlin": 4305,
      "Ġarm": 4306,
      "Ġindependent": 4307,
      "ingly": 4308,
      "Ġspan": 4309,
      "Ġfirm": 4310,
      "Ġgather": 4311,
      "erate": 4312,
      "Ġvitamin": 4313,
      "Ġbox": 4314,
      "Ġobst": 4315,
      "Ġawesome": 4316,
      "Ġlunch": 4317,
      "unately": 4318,
      "Ġhus": 4319,
      "Ġassistance": 4320,
      "Ġfighting": 4321,
      "Ġbelong": 4322,
      "Ġatm": 4323,
      "Ġencompass": 4324,
      "Ġattitude": 4325,
      "irm": 4326,
      "Ġregardless": 4327,
      "Ġvirt": 4328,
      "new": 4329,
      "Ġterrible": 4330,
      "Ġfitness": 4331,
      "Ġmel": 4332,
      "using": 4333,
      "irt": 4334,
      "Ġintr": 4335,
      "Ġtree": 4336,
      "Ġcontrovers": 4337,
      "Ġhomework": 4338,
      "Ġthrow": 4339,
      "Ġadded": 4340,
      "off": 4341,
      "Ġwhereas": 4342,
      "Ġlessons": 4343,
      "Ġhydro": 4344,
      "Ġcentury": 4345,
      "Ġclosely": 4346,
      "Ġaccident": 4347,
      "Ġfarm": 4348,
      "Ġbiological": 4349,
      "Ġdedicated": 4350,
      "Ġmolecular": 4351,
      "Ġunders": 4352,
      "Ġsatisf": 4353,
      "Ġbone": 4354,
      "Ġacknowled": 4355,
      "Ġacting": 4356,
      "stract": 4357,
      "Ġsort": 4358,
      "Ġintellect": 4359,
      "Ġembrace": 4360,
      "Ġrare": 4361,
      "wide": 4362,
      "Ġachieving": 4363,
      "Ġbelie": 4364,
      "Ġlbs": 4365,
      "Ġboost": 4366,
      "Ġrough": 4367,
      "Ġuseful": 4368,
      "12": 4369,
      "osy": 4370,
      "Ġcultivate": 4371,
      "Ġcharacterized": 4372,
      "Ġdivid": 4373,
      "Ġpractition": 4374,
      "Ġraise": 4375,
      "Ġelim": 4376,
      "Ġ0": 4377,
      "Ġasp": 4378,
      "Ġautom": 4379,
      "Ġord": 4380,
      "Ġtap": 4381,
      "Ġwritten": 4382,
      "Ġfacing": 4383,
      "Ġcertainly": 4384,
      "Ġdistance": 4385,
      "Ġfriendly": 4386,
      "Ġneck": 4387,
      "Ġinvestment": 4388,
      "Ġsimpl": 4389,
      "pected": 4390,
      "Ġactual": 4391,
      "Ġoccas": 4392,
      "Ġflav": 4393,
      "umptions": 4394,
      "Ġcaught": 4395,
      "Ġlegs": 4396,
      "Ġlu": 4397,
      "Ġvoc": 4398,
      "otes": 4399,
      "Ġdeficit": 4400,
      "Ġrelease": 4401,
      "itect": 4402,
      "Ġdisrupt": 4403,
      "otyp": 4404,
      "Ġquit": 4405,
      "Ġspent": 4406,
      "Ġstressed": 4407,
      "Ġcontex": 4408,
      "Ġcontexts": 4409,
      "Ġcompanies": 4410,
      "Ġbath": 4411,
      "Ġmistake": 4412,
      "Ġstyles": 4413,
      "Ġsoph": 4414,
      "Ġmissed": 4415,
      "ĠĠĠĠĠĠĠĠ": 4416,
      "Ġtreated": 4417,
      "Ġparticipate": 4418,
      "Ġjobs": 4419,
      "Ġrecommendations": 4420,
      "Ġregions": 4421,
      "Ġhealthier": 4422,
      "Ġoverwhelmed": 4423,
      "Ġassumptions": 4424,
      "Ġgene": 4425,
      "Ġgoverning": 4426,
      "Ġtrauma": 4427,
      "bu": 4428,
      "Ġdesired": 4429,
      "Ġstructural": 4430,
      "Ġarri": 4431,
      "Ġtechnological": 4432,
      "Ġinh": 4433,
      "Ġurban": 4434,
      "Ġ17": 4435,
      "iration": 4436,
      "Ġdna": 4437,
      "Ġflexibility": 4438,
      "inated": 4439,
      "Ġbesides": 4440,
      "Ġantib": 4441,
      "eding": 4442,
      "Ġadvancements": 4443,
      "inations": 4444,
      "Ġsitting": 4445,
      "Ġcreated": 4446,
      "akers": 4447,
      "Ġoperations": 4448,
      "text": 4449,
      "Ġrock": 4450,
      "health": 4451,
      "oral": 4452,
      "rics": 4453,
      "Ġbeginning": 4454,
      "Ġbusinesses": 4455,
      "Ġlots": 4456,
      "rad": 4457,
      "Ġsensitive": 4458,
      "Ġreson": 4459,
      "Ġarchitect": 4460,
      "Ġdefinition": 4461,
      "Ġneighbor": 4462,
      "la": 4463,
      "Ġadm": 4464,
      "Ġattach": 4465,
      "Ġcustomer": 4466,
      "Ġadvances": 4467,
      "Ġmitig": 4468,
      "Ġbuilt": 4469,
      "osystem": 4470,
      "ucid": 4471,
      "Ġstake": 4472,
      "Ġsolely": 4473,
      "Ġtransition": 4474,
      "erves": 4475,
      "Ġtable": 4476,
      "Ġplayed": 4477,
      "Ġsister": 4478,
      "Ġstrategic": 4479,
      "Ġalex": 4480,
      "Ġchoosing": 4481,
      "Ġ''": 4482,
      "Ġbalanced": 4483,
      "log": 4484,
      "Ġgrab": 4485,
      "Ġpleas": 4486,
      "Ġapproximately": 4487,
      "Ġsomewhere": 4488,
      "pan": 4489,
      "Ġchann": 4490,
      "da": 4491,
      "Ġprocedures": 4492,
      "Ġexchange": 4493,
      "Ġpaid": 4494,
      "Ġhyper": 4495,
      "Ġcolon": 4496,
      "Ġpresence": 4497,
      "irst": 4498,
      "Ġexcl": 4499,
      "Ġben": 4500,
      "Ġdetermined": 4501,
      "Ġbreaking": 4502,
      "Ġfreed": 4503,
      "Ġcompetition": 4504,
      "otic": 4505,
      "fit": 4506,
      "Ġcitiz": 4507,
      "Ġoxygen": 4508,
      "Ġatmosph": 4509,
      "igu": 4510,
      "uracy": 4511,
      "book": 4512,
      "Ġwis": 4513,
      "Ġgave": 4514,
      "Ġcharacters": 4515,
      "Ġletting": 4516,
      "Ġdisplay": 4517,
      "cont": 4518,
      "Ġdie": 4519,
      "Ġfruit": 4520,
      "Ġrelative": 4521,
      "Ġbegan": 4522,
      "Ġappoint": 4523,
      "Ġsnack": 4524,
      "introduction": 4525,
      "Ġdefine": 4526,
      "Ġaccurately": 4527,
      "Ġconsiderations": 4528,
      "Ġshift": 4529,
      "Ġoverwhelming": 4530,
      "nam": 4531,
      "Ġinsight": 4532,
      "Ġbreast": 4533,
      "ounter": 4534,
      "ĠâĢĺ": 4535,
      "example": 4536,
      "ipped": 4537,
      "Ġtemper": 4538,
      "Ġnuanced": 4539,
      "Ġimage": 4540,
      "Ġavoiding": 4541,
      "upid": 4542,
      "Ġsustainability": 4543,
      "ulating": 4544,
      "Ġarrange": 4545,
      "Ġalgorithms": 4546,
      "Ġusers": 4547,
      "Ġhmm": 4548,
      "Ġgives": 4549,
      "Ġweekend": 4550,
      "Ġnar": 4551,
      "Ġmine": 4552,
      "Ġaccuracy": 4553,
      "related": 4554,
      "Ġtrain": 4555,
      "Ġvolunte": 4556,
      "Ġspaces": 4557,
      "Ġtex": 4558,
      "Ġnotable": 4559,
      "Ġdiscrim": 4560,
      "econom": 4561,
      "Ġbrought": 4562,
      ":*": 4563,
      "Ġweakness": 4564,
      "Ġjoy": 4565,
      "Ġmargin": 4566,
      "ider": 4567,
      "Ġintroduce": 4568,
      "Ġcouns": 4569,
      "Ġlie": 4570,
      "Ġextensive": 4571,
      "Ġdont": 4572,
      "Ġhighly": 4573,
      "roph": 4574,
      "Ġecosystem": 4575,
      "Ġattribut": 4576,
      "Ġdelicious": 4577,
      "och": 4578,
      "ourse": 4579,
      "Ġfosters": 4580,
      "ished": 4581,
      "ior": 4582,
      "Ġreaders": 4583,
      "Ġanxious": 4584,
      "Â°": 4585,
      "Ġshed": 4586,
      "Ġanywhere": 4587,
      "Ġshown": 4588,
      "Ġ14": 4589,
      "Ġalongside": 4590,
      "ato": 4591,
      "Ġprivate": 4592,
      "icism": 4593,
      "Ġexperiencing": 4594,
      "Ġaudience": 4595,
      "Ġtaste": 4596,
      "itud": 4597,
      "Ġinsurance": 4598,
      "Ġmonitoring": 4599,
      "iciency": 4600,
      "Ġteaching": 4601,
      "iation": 4602,
      "urt": 4603,
      "Ġrise": 4604,
      "Ġchances": 4605,
      "Ġhusband": 4606,
      "Ġstupid": 4607,
      "ctu": 4608,
      "Ġfulfill": 4609,
      "Ġmodeling": 4610,
      "Ġholding": 4611,
      "nect": 4612,
      "Ġdigest": 4613,
      "omic": 4614,
      "Ġformal": 4615,
      "Ġdu": 4616,
      "Ġlean": 4617,
      "Ġcoop": 4618,
      "ophy": 4619,
      "Ġsoftware": 4620,
      "inent": 4621,
      "Ġcustomers": 4622,
      "Ġcream": 4623,
      "Ġmarkets": 4624,
      "Ġaffects": 4625,
      "Ġbasically": 4626,
      "15": 4627,
      "Ġappe": 4628,
      "Ġfrustrated": 4629,
      "Ġ50": 4630,
      "Ġconnected": 4631,
      "Ġwonderful": 4632,
      "Ġtheories": 4633,
      "holders": 4634,
      "Ġwood": 4635,
      "Ġmount": 4636,
      "Ġelucid": 4637,
      "Ġrecommended": 4638,
      "acking": 4639,
      "Ġbeauty": 4640,
      "ares": 4641,
      "Ġoce": 4642,
      "Ġreligious": 4643,
      "Ġdiagnosed": 4644,
      "Ġtopic": 4645,
      "vious": 4646,
      "Ġcomprom": 4647,
      "aign": 4648,
      "Ġpsychological": 4649,
      "lines": 4650,
      "Ġpun": 4651,
      "Ġdreams": 4652,
      "ascular": 4653,
      "Ġnotes": 4654,
      "Ġframework": 4655,
      "Ġregulation": 4656,
      "Ġproceed": 4657,
      "Ġconcern": 4658,
      "ias": 4659,
      "arrass": 4660,
      "Ġdepends": 4661,
      "ref": 4662,
      "Ġcompass": 4663,
      "Ġintegrating": 4664,
      "hand": 4665,
      "Ġvib": 4666,
      "Ġcuriosity": 4667,
      "Ġpaint": 4668,
      "Ġpromotes": 4669,
      "Ġtooth": 4670,
      "Ġpractitioners": 4671,
      "Ġhandling": 4672,
      "Ġexhibit": 4673,
      "Ġundersc": 4674,
      "Ġconflict": 4675,
      "Ġmilk": 4676,
      "Ġleadership": 4677,
      "Ġhous": 4678,
      "bing": 4679,
      "Ġstem": 4680,
      "rest": 4681,
      "icip": 4682,
      "Ġstar": 4683,
      "Ġshit": 4684,
      "Ġbow": 4685,
      "Ġhes": 4686,
      "Ġembarrass": 4687,
      "Ġshoes": 4688,
      "tes": 4689,
      "dep": 4690,
      "Ġhighlighting": 4691,
      "Ġmissing": 4692,
      "Ġpreviously": 4693,
      "Ġdiscussing": 4694,
      "Ġstages": 4695,
      "Ġleaves": 4696,
      "Ġarise": 4697,
      "idden": 4698,
      "anted": 4699,
      "Ġunits": 4700,
      "Ġdemands": 4701,
      "cd": 4702,
      "Ġreplace": 4703,
      "Ġalike": 4704,
      "Ġcampaign": 4705,
      "cription": 4706,
      "Ġuncomfort": 4707,
      "Ġregulations": 4708,
      "Ġcharge": 4709,
      "Ġoutdo": 4710,
      "Ġpublished": 4711,
      "rome": 4712,
      "Ġobserved": 4713,
      "Ġgenerate": 4714,
      "Ġtherm": 4715,
      "ifies": 4716,
      "Ġyounger": 4717,
      "Ġusage": 4718,
      "Ġhopefully": 4719,
      "Ġintervention": 4720,
      "Ġharmful": 4721,
      "cules": 4722,
      "gebra": 4723,
      "Ġpicture": 4724,
      "Ġexamination": 4725,
      "Ġpassionate": 4726,
      "Ġvs": 4727,
      "Ġliber": 4728,
      "Ġflat": 4729,
      "Ġran": 4730,
      "Ġfaster": 4731,
      "fast": 4732,
      "Ġorganized": 4733,
      "Ġkeeps": 4734,
      "last": 4735,
      "Ġnutrients": 4736,
      "welcome": 4737,
      "Ġunfort": 4738,
      "Ġtack": 4739,
      "Ġexpressions": 4740,
      "Ġconstrain": 4741,
      "Ġinterf": 4742,
      "Ġexcept": 4743,
      "Ġscary": 4744,
      "iles": 4745,
      "Ġingredients": 4746,
      "Ġmig": 4747,
      "Ġclothing": 4748,
      "Ġadequate": 4749,
      "Ġhind": 4750,
      "Ġlandscape": 4751,
      "Ġcontaining": 4752,
      "Ġinterventions": 4753,
      "Ġsuggests": 4754,
      "Ġhurts": 4755,
      "Ġaccounting": 4756,
      "Ġstanding": 4757,
      "Ġencourages": 4758,
      "Ġuncomfortable": 4759,
      "inely": 4760,
      "Ġreceive": 4761,
      "Ġauthentic": 4762,
      "mic": 4763,
      "Ġglass": 4764,
      "Ġancient": 4765,
      "Ġradiation": 4766,
      "rene": 4767,
      "Ġwide": 4768,
      "Ġplayers": 4769,
      "know": 4770,
      "Ġexpected": 4771,
      "Ġsuccessfully": 4772,
      "Ġarms": 4773,
      "Ġalive": 4774,
      "Ġintellectual": 4775,
      "Ġdiscovered": 4776,
      "Ġemployees": 4777,
      "Ġuses": 4778,
      "ultural": 4779,
      "Ġspeech": 4780,
      "Ġsynthes": 4781,
      "za": 4782,
      "Ġdating": 4783,
      "ratic": 4784,
      "Ġrealm": 4785,
      "ya": 4786,
      "Ġhungry": 4787,
      "Ġintense": 4788,
      "Ġrepresentation": 4789,
      "Ġselecting": 4790,
      "Ġindeed": 4791,
      "brate": 4792,
      "Ġassist": 4793,
      "Ġgent": 4794,
      "Ġcategories": 4795,
      "Ġamid": 4796,
      "ino": 4797,
      "Ġgar": 4798,
      "Ġblock": 4799,
      "Ġincorporate": 4800,
      "sec": 4801,
      "Ġtv": 4802,
      "Ġfib": 4803,
      "Ġhoriz": 4804,
      "Ġshar": 4805,
      "Ġrewarding": 4806,
      "Ġmessage": 4807,
      "Ġtutorial": 4808,
      "_{": 4809,
      "aren": 4810,
      "ole": 4811,
      "with": 4812,
      "Ġtow": 4813,
      "Ġsynd": 4814,
      "Ġseemingly": 4815,
      "Ġdil": 4816,
      "Ġthoughtful": 4817,
      "Ġpolitics": 4818,
      "Ġdeeply": 4819,
      "well": 4820,
      "Ġeconomy": 4821,
      "Ġdebate": 4822,
      "Ġthoroughly": 4823,
      "Ġgam": 4824,
      "Ġsand": 4825,
      "erving": 4826,
      "Ġrom": 4827,
      "Ġbrief": 4828,
      "Ġpainting": 4829,
      "Ġadvantage": 4830,
      "Ġnorms": 4831,
      "icks": 4832,
      "Ġ199": 4833,
      "Ġmer": 4834,
      "Ġsolve": 4835,
      "Ġgotten": 4836,
      "inant": 4837,
      "Ġenglish": 4838,
      "Ġprevention": 4839,
      "Ġteen": 4840,
      "Ġfaith": 4841,
      "Ġcorpor": 4842,
      "faction": 4843,
      "Ġrecip": 4844,
      "Ġaid": 4845,
      "Ġended": 4846,
      "Ġstarts": 4847,
      "Ġneut": 4848,
      "ographic": 4849,
      "Ġadh": 4850,
      "Ġfilled": 4851,
      "Ġvarying": 4852,
      "Ġshowing": 4853,
      "Ġparticles": 4854,
      "Ġmere": 4855,
      "Ġinitiatives": 4856,
      "Ġassessment": 4857,
      "Ġsuffering": 4858,
      "Ġchicken": 4859,
      "ologists": 4860,
      "Ġcommonly": 4861,
      "ustrate": 4862,
      "Ġreput": 4863,
      "Ġthemes": 4864,
      "Ġtum": 4865,
      "Ġcommunic": 4866,
      "Ġinitially": 4867,
      "Ġath": 4868,
      "Ġenjoyed": 4869,
      "Ġstro": 4870,
      "Ġmedications": 4871,
      "Ġstream": 4872,
      "Ġrush": 4873,
      "Ġboyfriend": 4874,
      "Ġq": 4875,
      "Ġrealistic": 4876,
      "Ġyoga": 4877,
      "Ġmathematical": 4878,
      "Ġpal": 4879,
      "Ġ25": 4880,
      "Ġtiny": 4881,
      "Ġalgebra": 4882,
      "Ġdefined": 4883,
      "Ġsouth": 4884,
      "Ġreaching": 4885,
      "21": 4886,
      "Ġcontrast": 4887,
      "erial": 4888,
      "Ġtreating": 4889,
      "ppy": 4890,
      "Ġbright": 4891,
      "Ġseemed": 4892,
      "igue": 4893,
      "Ġregion": 4894,
      "Ġmicrob": 4895,
      "che": 4896,
      "Ġdisappoint": 4897,
      "Ġrestrict": 4898,
      "Ġfriendship": 4899,
      "Ġai": 4900,
      "Ġfunny": 4901,
      "Ġban": 4902,
      "Ġillustrate": 4903,
      "Ġloose": 4904,
      "Ġchildhood": 4905,
      "pet": 4906,
      "Ġliqu": 4907,
      "Ġkept": 4908,
      "Ġtraits": 4909,
      "thetic": 4910,
      "Ġsignals": 4911,
      "Ġcandid": 4912,
      "Ġbroken": 4913,
      "Ġsummary": 4914,
      "Ġextreme": 4915,
      "throp": 4916,
      "Ġpreparation": 4917,
      "Ġrefine": 4918,
      "pre": 4919,
      "Ġanti": 4920,
      "Ġobvious": 4921,
      "Ġworldwide": 4922,
      "Ġunivers": 4923,
      "Ġcapture": 4924,
      "Ġfederal": 4925,
      "connect": 4926,
      "Ġembracing": 4927,
      "Ġevaluation": 4928,
      "Ġprove": 4929,
      "ris": 4930,
      "Ġforgive": 4931,
      "olve": 4932,
      "Ġmanif": 4933,
      "Ġcash": 4934,
      "Ġcomplic": 4935,
      "ums": 4936,
      "Ġabuse": 4937,
      "oo": 4938,
      "Ġexplanation": 4939,
      "Ġvariations": 4940,
      "Ġexperts": 4941,
      "Ġranging": 4942,
      "Ġinfections": 4943,
      "Ġobserve": 4944,
      "gra": 4945,
      "cers": 4946,
      "Ġ24": 4947,
      "Ġoutput": 4948,
      "water": 4949,
      "Ġinner": 4950,
      "erative": 4951,
      "Ġdiscipline": 4952,
      "iture": 4953,
      "Ġencount": 4954,
      "Ġhidden": 4955,
      "Ġdangerous": 4956,
      "finally": 4957,
      "Ġsav": 4958,
      "kg": 4959,
      "Ġextremely": 4960,
      "sts": 4961,
      "Ġpill": 4962,
      "Ġemiss": 4963,
      "Ġzero": 4964,
      "Ġsales": 4965,
      "itate": 4966,
      "Ġperce": 4967,
      "Ġplanet": 4968,
      "Ġidentified": 4969,
      "Ġworkers": 4970,
      "Ġspecialized": 4971,
      "Ġbother": 4972,
      "Ġresist": 4973,
      "Ġtension": 4974,
      "Ġcollection": 4975,
      "Ġcontributions": 4976,
      "haps": 4977,
      "Ġchin": 4978,
      "Ġinflammation": 4979,
      "Ġsections": 4980,
      "apan": 4981,
      "Ġvast": 4982,
      "Ġgerm": 4983,
      "Ġsolving": 4984,
      "Ġgrades": 4985,
      "Ġmeat": 4986,
      "etry": 4987,
      "Ġmolecules": 4988,
      "Ġshifts": 4989,
      "Ġmarginal": 4990,
      "Ġliterally": 4991,
      "Ġchat": 4992,
      "Ġgrocer": 4993,
      "Ġcontributes": 4994,
      "Ġgirls": 4995,
      "tery": 4996,
      "Ġcourt": 4997,
      "Ġorganic": 4998,
      "Ġencouraging": 4999,
      "Ġillustr": 5000,
      "Ġfrequency": 5001,
      "Ġcomputational": 5002,
      "Ġuser": 5003,
      "rant": 5004,
      "Ġcompassion": 5005,
      "Ġimmun": 5006,
      "Ġpattern": 5007,
      "Ġunfortunately": 5008,
      "Ġtransportation": 5009,
      "Ġmarried": 5010,
      "Ġconstraints": 5011,
      "Ġstopped": 5012,
      "Ġsam": 5013,
      "Ġfro": 5014,
      "Ġequations": 5015,
      "isticated": 5016,
      "pin": 5017,
      "Ġviolence": 5018,
      "fo": 5019,
      "Ġamounts": 5020,
      "Ġload": 5021,
      "Ġunless": 5022,
      "Ġalt": 5023,
      "Ġsell": 5024,
      "Ġevaluating": 5025,
      "Ġsophisticated": 5026,
      "Ġbarriers": 5027,
      "Ġefficiently": 5028,
      "Ġwearing": 5029,
      "Ġteachers": 5030,
      "ai": 5031,
      "Ġperforming": 5032,
      "Ġly": 5033,
      "Ġutilizing": 5034,
      "Ġjam": 5035,
      "onic": 5036,
      "Ġpushing": 5037,
      "Ġbrid": 5038,
      "Ġprofound": 5039,
      "Ġnavigating": 5040,
      "Ġod": 5041,
      "aur": 5042,
      "Ġdesigns": 5043,
      "Ġsmoking": 5044,
      "Ġuns": 5045,
      "licit": 5046,
      "Ġfreedom": 5047,
      "Ġmale": 5048,
      "Ġwhe": 5049,
      "Ġperfectly": 5050,
      "Ġinjuries": 5051,
      "Ġmastering": 5052,
      "Ġfemale": 5053,
      "Ġqualities": 5054,
      "Ġstrain": 5055,
      "ror": 5056,
      "Ġaims": 5057,
      "antic": 5058,
      "Ġemploying": 5059,
      "Ġartific": 5060,
      "Ġpressing": 5061,
      "Ġintent": 5062,
      "Ġdescribe": 5063,
      "rete": 5064,
      "Ġbeat": 5065,
      "Ġacknowledging": 5066,
      "Ġdetermining": 5067,
      "Ġlimits": 5068,
      "ventional": 5069,
      "Ġdisciplines": 5070,
      "Ġclim": 5071,
      "Ġmindfulness": 5072,
      "Ġmas": 5073,
      "Ġborn": 5074,
      "Ġsides": 5075,
      "Ġfloor": 5076,
      "Ġengaged": 5077,
      "Ġgeomet": 5078,
      "Ġsyndrome": 5079,
      "hyth": 5080,
      "Ġsmell": 5081,
      "Ġproductivity": 5082,
      "Ġbonds": 5083,
      "Ġinequality": 5084,
      "Ġdouble": 5085,
      "Ġnegot": 5086,
      "aph": 5087,
      "Ġprivacy": 5088,
      "Ġjoint": 5089,
      "Ġcriteria": 5090,
      "Ġwarr": 5091,
      "Ġinstructions": 5092,
      "Ġstreet": 5093,
      "Ġpeaceful": 5094,
      "Ġoccup": 5095,
      "Ġgold": 5096,
      "Ġtrees": 5097,
      "Ġunex": 5098,
      "Ġcelebrate": 5099,
      "Ġemployed": 5100,
      "sm": 5101,
      "Ġsensit": 5102,
      "Ġgrat": 5103,
      "active": 5104,
      "Ġlived": 5105,
      "Ġswimming": 5106,
      "Ġgenerations": 5107,
      "Ġopinions": 5108,
      "Ġwaves": 5109,
      "Ġcapabilities": 5110,
      "Ġnearly": 5111,
      "Ġlearners": 5112,
      "Ġbirthday": 5113,
      "after": 5114,
      "Ġpollution": 5115,
      "ciplinary": 5116,
      "Ġfollows": 5117,
      "wing": 5118,
      "Ġorganisms": 5119,
      "Ġcitizens": 5120,
      "Ġstrive": 5121,
      "def": 5122,
      "Ġlibr": 5123,
      "Ġenhances": 5124,
      "Ġrecognition": 5125,
      "Ġgoods": 5126,
      "eted": 5127,
      "Ġseparate": 5128,
      "Ġprices": 5129,
      "Ġtight": 5130,
      "asp": 5131,
      "erior": 5132,
      "Ġtit": 5133,
      "Ġstor": 5134,
      "Ġjapan": 5135,
      "ĠÎ": 5136,
      "Ġdoor": 5137,
      "ortion": 5138,
      "Ġ11": 5139,
      "Ġdrop": 5140,
      "}$": 5141,
      "Ġ40": 5142,
      "there": 5143,
      "Ġworst": 5144,
      "Ġexplored": 5145,
      "Ġmentally": 5146,
      "Ġbroke": 5147,
      "Ġdram": 5148,
      "Ġdiscourse": 5149,
      "Ġble": 5150,
      "Ġsubstantial": 5151,
      "Ġunw": 5152,
      "loy": 5153,
      "load": 5154,
      "Ġpair": 5155,
      "Ġfant": 5156,
      "ommod": 5157,
      "Ġpassed": 5158,
      "Ġdisparities": 5159,
      "eav": 5160,
      "Ġgre": 5161,
      "Ġfamiliarize": 5162,
      "Ġunne": 5163,
      "Ġsuffer": 5164,
      "Ġends": 5165,
      "Ġencounter": 5166,
      "Ġgarden": 5167,
      "Ġregulatory": 5168,
      "ians": 5169,
      "Ġunexpected": 5170,
      "Ġsatisfaction": 5171,
      "Ġelectron": 5172,
      "Ġstakeholders": 5173,
      "Ġcomponent": 5174,
      "Ġenhanced": 5175,
      "Ġconservation": 5176,
      "Ġshopping": 5177,
      "Ġfixed": 5178,
      "ologist": 5179,
      "atically": 5180,
      "Ġturns": 5181,
      "Ġbeneficial": 5182,
      "Ġaccommod": 5183,
      "Ġtotally": 5184,
      "Ġsuddenly": 5185,
      "uss": 5186,
      "rated": 5187,
      "Ġsan": 5188,
      "night": 5189,
      "Ġeffectiveness": 5190,
      "eut": 5191,
      "Ġresolution": 5192,
      "Ġtoxic": 5193,
      "Ġrh": 5194,
      "Ġgentle": 5195,
      "Ġtwice": 5196,
      "ician": 5197,
      "Ġconflicts": 5198,
      "Ġoral": 5199,
      "Ġinstall": 5200,
      "Ġswitch": 5201,
      "Ġbran": 5202,
      "Ġreinforce": 5203,
      "mer": 5204,
      "Ġunderstandable": 5205,
      "Ġcalc": 5206,
      "Ġbreaks": 5207,
      "Ġunnecess": 5208,
      "Ġmovies": 5209,
      "usions": 5210,
      "Ġ==": 5211,
      "Ġimprovements": 5212,
      "Ġminor": 5213,
      "imag": 5214,
      "reprene": 5215,
      "Ġadvantages": 5216,
      "Ġweb": 5217,
      "estic": 5218,
      "Ġreflection": 5219,
      "ighter": 5220,
      "tering": 5221,
      "norm": 5222,
      "urb": 5223,
      "ded": 5224,
      "Ġgenuinely": 5225,
      "ructure": 5226,
      "Ġestablishing": 5227,
      "Ġexpensive": 5228,
      "tra": 5229,
      "Ġnose": 5230,
      "Ġpreventing": 5231,
      "Ġdeliver": 5232,
      "Ġimages": 5233,
      "Ġsample": 5234,
      "Ġallowed": 5235,
      "Ġsup": 5236,
      "Ġcos": 5237,
      "Ġpersistent": 5238,
      "Ġband": 5239,
      "Ġconscious": 5240,
      "Ġanno": 5241,
      "Ġinterpretation": 5242,
      "Ġhygi": 5243,
      "Ġmr": 5244,
      "ashion": 5245,
      "Ġalle": 5246,
      "free": 5247,
      "ipping": 5248,
      "Ġstorage": 5249,
      "Ġpeers": 5250,
      "Ġmoral": 5251,
      "Ġcompare": 5252,
      "Ġeggs": 5253,
      "col": 5254,
      "Ġdiss": 5255,
      "Ġaww": 5256,
      "Ġalternatives": 5257,
      "alous": 5258,
      "Ġride": 5259,
      "Ġdiving": 5260,
      "Ġperhaps": 5261,
      "Ġenth": 5262,
      "Ġfluctu": 5263,
      "Ġ$\\": 5264,
      "Ġsuggestions": 5265,
      "economic": 5266,
      "despite": 5267,
      "Ġreliable": 5268,
      "oting": 5269,
      "mph": 5270,
      "Ġartificial": 5271,
      "Ġocean": 5272,
      "Ġdiscussed": 5273,
      "Ġpolicym": 5274,
      "Ġnative": 5275,
      "ibri": 5276,
      "Ġrevolution": 5277,
      "Ġamidst": 5278,
      "Ġorganizational": 5279,
      "ta": 5280,
      "Ġdatas": 5281,
      "first": 5282,
      "omial": 5283,
      "umes": 5284,
      "lig": 5285,
      "Ġgenes": 5286,
      "Ġcelebr": 5287,
      "cast": 5288,
      "Ġadhere": 5289,
      "Ġdiscomfort": 5290,
      "elihood": 5291,
      "Ġrain": 5292,
      "Ġfab": 5293,
      "Ġtracking": 5294,
      "Ġcris": 5295,
      "Ġathlet": 5296,
      "Ġtact": 5297,
      "emic": 5298,
      "Ġbiases": 5299,
      "Ġfellow": 5300,
      "Ġdifferently": 5301,
      "Ġforming": 5302,
      "acies": 5303,
      "down": 5304,
      "Ġ($": 5305,
      "Ġunco": 5306,
      "Ġenjoyable": 5307,
      "verty": 5308,
      "ulated": 5309,
      "Ġheadach": 5310,
      "Ġlinked": 5311,
      "vity": 5312,
      "Ġentreprene": 5313,
      "Ġpoverty": 5314,
      "Ġlikelihood": 5315,
      "Ġbare": 5316,
      "Ġspat": 5317,
      "Ġchocol": 5318,
      "Ġresponsibilities": 5319,
      "Ġprecise": 5320,
      "Ġirrit": 5321,
      "Ġwealth": 5322,
      "Ġvideo": 5323,
      "char": 5324,
      "Ġneighborhood": 5325,
      "Ġemotionally": 5326,
      "Ġovercome": 5327,
      "Ġanalytical": 5328,
      "Ġpositions": 5329,
      "Ġbank": 5330,
      "Ġsurfaces": 5331,
      "Ġdied": 5332,
      "Ġwife": 5333,
      "uses": 5334,
      "Ġshot": 5335,
      "Ġexpans": 5336,
      "Ġdancing": 5337,
      "]],": 5338,
      "edge": 5339,
      "can": 5340,
      "Ġelev": 5341,
      "Ġobjective": 5342,
      "Ġrent": 5343,
      "roscop": 5344,
      "Ġchemistry": 5345,
      "Ġaccum": 5346,
      "itudes": 5347,
      "Ġobservations": 5348,
      "iff": 5349,
      "Ġphilosophy": 5350,
      "att": 5351,
      "Ġrecords": 5352,
      "Ġendeav": 5353,
      "Ġfatigue": 5354,
      "Ġtherapeut": 5355,
      "Ġfert": 5356,
      "Ġhiking": 5357,
      "Ġmessages": 5358,
      "Ġphotos": 5359,
      "Ġbeach": 5360,
      "onna": 5361,
      "Ġvariable": 5362,
      "Ġparticipation": 5363,
      "Ġliked": 5364,
      "Ġdesigning": 5365,
      "Ġstable": 5366,
      "Ġroots": 5367,
      "Ġnarratives": 5368,
      "Ġphr": 5369,
      "Ġupper": 5370,
      "Ġconfid": 5371,
      "Ġanger": 5372,
      "Ġcreates": 5373,
      "Ġlayers": 5374,
      "ishing": 5375,
      "Ġmotivated": 5376,
      "zym": 5377,
      "Ġbottom": 5378,
      "Ġbeg": 5379,
      "Ġax": 5380,
      "Ġwhose": 5381,
      "Ġconstruction": 5382,
      "Ġaccountability": 5383,
      "understanding": 5384,
      "Ġdirections": 5385,
      "inter": 5386,
      "spe": 5387,
      "Ġquantum": 5388,
      "Ġprol": 5389,
      "ulous": 5390,
      "ilibri": 5391,
      "Ġamericans": 5392,
      "Ġobstac": 5393,
      "Ġattacks": 5394,
      "Ġexpertise": 5395,
      "pa": 5396,
      "Ġtall": 5397,
      "Ġillum": 5398,
      "Ġelement": 5399,
      "taining": 5400,
      "Ġimaging": 5401,
      "Ġfuel": 5402,
      "hic": 5403,
      "Ġshapes": 5404,
      "Ġnerve": 5405,
      "Ġbrother": 5406,
      "Ġrapidly": 5407,
      "Ġeuropean": 5408,
      "lights": 5409,
      "Ġturning": 5410,
      "Ġmir": 5411,
      "Ġtone": 5412,
      "Ġintroduced": 5413,
      "Ġdishes": 5414,
      "Ġsharp": 5415,
      "Ġemergency": 5416,
      "cell": 5417,
      "Ġpregnancy": 5418,
      "quality": 5419,
      "Ġtechnical": 5420,
      "]].": 5421,
      "bl": 5422,
      "lee": 5423,
      "``": 5424,
      "eters": 5425,
      "Ġposture": 5426,
      "ios": 5427,
      "rees": 5428,
      "Ġrepeat": 5429,
      "such": 5430,
      "Ġpresentation": 5431,
      "Ġnarrow": 5432,
      "Ġtemperatures": 5433,
      "Ġ13": 5434,
      "Ġindustrial": 5435,
      "Ġpolice": 5436,
      "yal": 5437,
      "olved": 5438,
      "Ġsubjects": 5439,
      "Ġphilosoph": 5440,
      "arning": 5441,
      "Ġdiscrimination": 5442,
      "healthy": 5443,
      "that": 5444,
      "Ġyork": 5445,
      "Ġcues": 5446,
      "Ġofficial": 5447,
      "Ġhygiene": 5448,
      "Ġsufficient": 5449,
      "Ġbones": 5450,
      "Ġcrim": 5451,
      "Ġcorner": 5452,
      "Ġfashion": 5453,
      "Ġcorresponding": 5454,
      "Ġcontinues": 5455,
      "Ġauton": 5456,
      "Ġformula": 5457,
      "Ġanswers": 5458,
      "Ġdimensions": 5459,
      "uls": 5460,
      "Ġrhyth": 5461,
      "Ġcomposition": 5462,
      "Ġconcentration": 5463,
      "Ġderived": 5464,
      "Ġethn": 5465,
      "irable": 5466,
      "Ġresid": 5467,
      "Ġminimizing": 5468,
      "Ġexpenses": 5469,
      "Ġforeign": 5470,
      "Ġunnecessary": 5471,
      "Ġemerged": 5472,
      "Ġrelief": 5473,
      "Ġcoping": 5474,
      "Ġindicate": 5475,
      "Ġsocieties": 5476,
      "Ġaccel": 5477,
      "Ġstrengthen": 5478,
      "Ġentirely": 5479,
      "Ġbored": 5480,
      "Ġworksh": 5481,
      "Ġinfluences": 5482,
      "Ġholds": 5483,
      "Ġstrict": 5484,
      "Ġoutcome": 5485,
      "Ġremaining": 5486,
      "ani": 5487,
      "60": 5488,
      "Ġeight": 5489,
      "Ġfigures": 5490,
      "Ġpleasure": 5491,
      "Ġproduced": 5492,
      "arant": 5493,
      "Ġretur": 5494,
      "Ġvect": 5495,
      "Ġgeneration": 5496,
      "lor": 5497,
      "Ġchina": 5498,
      "Ġvehic": 5499,
      "case": 5500,
      "??": 5501,
      "Ġdepartment": 5502,
      "Ġmember": 5503,
      "Ġprinciple": 5504,
      "Ġdiscovery": 5505,
      "Ġtargeted": 5506,
      "Ġhaz": 5507,
      "oding": 5508,
      "Ġheld": 5509,
      "known": 5510,
      "Ġhypothes": 5511,
      "Ġatmosphere": 5512,
      "Ġseeds": 5513,
      "Ġapolog": 5514,
      "Ġtissues": 5515,
      "Ġbreakfast": 5516,
      "Ġkn": 5517,
      "Ġmatch": 5518,
      "Ġindu": 5519,
      "Ġlasting": 5520,
      "Ġheal": 5521,
      "25": 5522,
      "imagine": 5523,
      "allow": 5524,
      "Ġcommer": 5525,
      "Ġinspire": 5526,
      "Ġequity": 5527,
      "year": 5528,
      "Ġgrade": 5529,
      "gal": 5530,
      "Ġmindset": 5531,
      "Ġmathematics": 5532,
      "lyn": 5533,
      "Ġnobody": 5534,
      "Ġunderpin": 5535,
      "cho": 5536,
      "Ġrational": 5537,
      "keep": 5538,
      "Ġpictures": 5539,
      "Ġinvestigations": 5540,
      "Ġbrand": 5541,
      "Ġclassical": 5542,
      "Ġheavily": 5543,
      "Ġchocolate": 5544,
      "Ġrecept": 5545,
      "Ġhousehold": 5546,
      "tic": 5547,
      "recent": 5548,
      "Ġtrusted": 5549,
      "Ġscrut": 5550,
      "Ġsite": 5551,
      "Ġanticip": 5552,
      "Ġcov": 5553,
      "Ġnorth": 5554,
      "Ġinternet": 5555,
      "Ġ...": 5556,
      "Ġtun": 5557,
      "Ġprem": 5558,
      "Ġchannels": 5559,
      "rench": 5560,
      "Ġmild": 5561,
      "Ġfort": 5562,
      "Ġped": 5563,
      "Ġnotably": 5564,
      "^{": 5565,
      "Ġdepressed": 5566,
      "vascular": 5567,
      "Ġinfrast": 5568,
      "Ġsupplies": 5569,
      "Ġdetailed": 5570,
      "Ġpurs": 5571,
      "Ġsend": 5572,
      "Ġchemicals": 5573,
      "Ġthous": 5574,
      "Ġjealous": 5575,
      "Ġmechanics": 5576,
      "Ġagric": 5577,
      "alities": 5578,
      "Ġrenew": 5579,
      "Ġreduction": 5580,
      "Ġindustries": 5581,
      "Ġcolleag": 5582,
      "Ġroll": 5583,
      "Ġarguments": 5584,
      "Ġpromising": 5585,
      "Ġbull": 5586,
      "Ġlingu": 5587,
      "Ġplastic": 5588,
      "Ġenthus": 5589,
      "Ġlayer": 5590,
      "Ġreprodu": 5591,
      "Ġassociation": 5592,
      "solving": 5593,
      "Ġstatements": 5594,
      "Ġkindness": 5595,
      "Ġbrit": 5596,
      "Ġdebt": 5597,
      "cs": 5598,
      "estern": 5599,
      "Ġinfluencing": 5600,
      "fting": 5601,
      "Ġpull": 5602,
      "Ġcontains": 5603,
      "Ġinfrastructure": 5604,
      "Ġplate": 5605,
      "Ġsensitivity": 5606,
      "Ġdrinks": 5607,
      "Ġenrich": 5608,
      "Ġlonely": 5609,
      "ky": 5610,
      "ls": 5611,
      "look": 5612,
      "Ġdiagnost": 5613,
      "Ġequilibri": 5614,
      "2018": 5615,
      "aughter": 5616,
      "Ġerrors": 5617,
      "Ġcenters": 5618,
      "Ġexperiments": 5619,
      "Ġbreathe": 5620,
      "Ġtraff": 5621,
      "Ġdecl": 5622,
      "Ġsea": 5623,
      "Ġlic": 5624,
      "Ġconventional": 5625,
      "Ġcode": 5626,
      "Ġtriggers": 5627,
      "Ġreported": 5628,
      "Ġtang": 5629,
      "Ġinstances": 5630,
      "Ġyours": 5631,
      "Ġcert": 5632,
      "Ġdietary": 5633,
      "Ġgratitude": 5634,
      "Ġmanifest": 5635,
      "Ġhello": 5636,
      "onents": 5637,
      "Ġdevice": 5638,
      "Ġcounting": 5639,
      "Ġfract": 5640,
      "these": 5641,
      "amples": 5642,
      "ctive": 5643,
      "pm": 5644,
      "Ġdemonstrating": 5645,
      "Ġenzym": 5646,
      "Ġsignal": 5647,
      "Ġagency": 5648,
      "Ġcup": 5649,
      "Ġdelivery": 5650,
      "Ġsuggesting": 5651,
      "Ġtexts": 5652,
      "Ġspl": 5653,
      "backs": 5654,
      "osite": 5655,
      "Ġaven": 5656,
      "Ġtherapeutic": 5657,
      "Ġreven": 5658,
      "Ġconsumer": 5659,
      "Ġcombination": 5660,
      "Ġargument": 5661,
      "unction": 5662,
      "Ġoutl": 5663,
      "Ġii": 5664,
      "Ġdecades": 5665,
      "however": 5666,
      "build": 5667,
      "Ġmagnetic": 5668,
      "Ġreinfor": 5669,
      "Ġattempting": 5670,
      "Ġeast": 5671,
      "Ġroutines": 5672,
      "Ġpanic": 5673,
      "zing": 5674,
      "Ġmembr": 5675,
      "semb": 5676,
      "Ġprobability": 5677,
      "Ġneur": 5678,
      "Ġmeasurements": 5679,
      "Ġimmediate": 5680,
      "Ġrestaur": 5681,
      "Ġwashing": 5682,
      "Ġ#": 5683,
      "urch": 5684,
      "Ġkitch": 5685,
      "Ġlift": 5686,
      "Ġcomplement": 5687,
      "Ġrub": 5688,
      "Ġserving": 5689,
      "Ġacids": 5690,
      "real": 5691,
      "Ġnearby": 5692,
      "Ġelectro": 5693,
      "opt": 5694,
      "Ġmeasurement": 5695,
      "Ġwave": 5696,
      "Ġtalent": 5697,
      "Ġemphasizing": 5698,
      "Ġartists": 5699,
      "esis": 5700,
      "trans": 5701,
      "Ġcourses": 5702,
      "Ġethics": 5703,
      "Ġcast": 5704,
      "Ġbigger": 5705,
      "Ġsucks": 5706,
      "Ġsaving": 5707,
      "Ġpolicymakers": 5708,
      "Ġbuying": 5709,
      "Ġrelaxing": 5710,
      "Ġextended": 5711,
      "Ġexplan": 5712,
      "gust": 5713,
      "see": 5714,
      "Ġdys": 5715,
      "Ġhighlights": 5716,
      "Ġimplementation": 5717,
      "Ġstead": 5718,
      "Ġweaknesses": 5719,
      "11": 5720,
      "Ġreference": 5721,
      "Ġprofessor": 5722,
      "Ġfever": 5723,
      "Ġexpanding": 5724,
      "Ġstock": 5725,
      "Ġbias": 5726,
      "storm": 5727,
      "Ġmultif": 5728,
      "Ġembark": 5729,
      "Ġacknowledge": 5730,
      "gans": 5731,
      "arness": 5732,
      "Ġease": 5733,
      "add": 5734,
      "Ġproductive": 5735,
      "Ġsquare": 5736,
      "Ġpreparing": 5737,
      "Ġcorrectly": 5738,
      "Ġdefining": 5739,
      "198": 5740,
      "gments": 5741,
      "organ": 5742,
      "Ġgath": 5743,
      "Ġgrasp": 5744,
      "Ġdental": 5745,
      "Ġcommitted": 5746,
      "Ġhorse": 5747,
      "Ġconstructive": 5748,
      "Ġrespective": 5749,
      "Ġapparent": 5750,
      "Ġowners": 5751,
      "2017": 5752,
      "Ġpossibilities": 5753,
      "oun": 5754,
      "Ġevolving": 5755,
      "Ġthro": 5756,
      "isl": 5757,
      "lication": 5758,
      "Ġwra": 5759,
      "Ġprominent": 5760,
      "Ġgree": 5761,
      "iry": 5762,
      "Ġjan": 5763,
      "Ġcomplexities": 5764,
      "Ġthreats": 5765,
      "Ġaccounts": 5766,
      "Ġdetermination": 5767,
      "Ġsalt": 5768,
      "Ġbike": 5769,
      "Ġanthrop": 5770,
      "Ġcompetitive": 5771,
      "Ġiron": 5772,
      "Ġemphasize": 5773,
      "inc": 5774,
      "anges": 5775,
      "disciplinary": 5776,
      "Ġreports": 5777,
      "Ġdoll": 5778,
      "\".": 5779,
      "Ġtransformation": 5780,
      "irect": 5781,
      "Ġcorrel": 5782,
      "Ġboring": 5783,
      "Ġregret": 5784,
      "theless": 5785,
      "Ġavailability": 5786,
      "izations": 5787,
      "etheless": 5788,
      "Ġuncertainty": 5789,
      "Ġjudgment": 5790,
      "Ġrelatively": 5791,
      "Ġpage": 5792,
      "iological": 5793,
      "Ġharness": 5794,
      "esity": 5795,
      "Ġnit": 5796,
      "arsh": 5797,
      "cling": 5798,
      "Ġlol": 5799,
      "Ġdomains": 5800,
      "Ġgirlfriend": 5801,
      "eem": 5802,
      "Ġthick": 5803,
      "Ġexists": 5804,
      "ption": 5805,
      "Ġmeantime": 5806,
      "Ġmilit": 5807,
      "Ġelectrical": 5808,
      "riage": 5809,
      "Ġcombining": 5810,
      "Ġliquid": 5811,
      "Ġblocks": 5812,
      "vable": 5813,
      "Ġround": 5814,
      "Ġmedium": 5815,
      "ca": 5816,
      "cra": 5817,
      "Ġmeasuring": 5818,
      "Ġcope": 5819,
      "Ġminimal": 5820,
      "Ġpursue": 5821,
      "Ġsupports": 5822,
      "Ġemissions": 5823,
      "Ġcere": 5824,
      "....": 5825,
      "lessly": 5826,
      "Ġstatement": 5827,
      "Ġsurve": 5828,
      "Ġloud": 5829,
      "Ġveter": 5830,
      "Ġbiggest": 5831,
      "otal": 5832,
      "Ġdemonstrates": 5833,
      "Ġsuit": 5834,
      "Ġproposed": 5835,
      "iratory": 5836,
      "Ġflowers": 5837,
      "Ġmoves": 5838,
      "Ġedge": 5839,
      "pread": 5840,
      "allel": 5841,
      "Ġcraft": 5842,
      "Ġobstacles": 5843,
      "Ġmentioned": 5844,
      "asive": 5845,
      "Ġcrow": 5846,
      "Ġsizes": 5847,
      "Ġattending": 5848,
      "Ġlatest": 5849,
      "Ġwed": 5850,
      "oh": 5851,
      "Ġinvesting": 5852,
      "idespread": 5853,
      "imp": 5854,
      "Ġconfig": 5855,
      "Ġfacial": 5856,
      "effect": 5857,
      "Ġwidespread": 5858,
      "ossible": 5859,
      "Ġexpressing": 5860,
      "Ġgri": 5861,
      "Ġconvey": 5862,
      "Ġce": 5863,
      "Ġstaff": 5864,
      "Ġschem": 5865,
      "igenous": 5866,
      "Ġgovernments": 5867,
      "Ġspin": 5868,
      "bit": 5869,
      "Ġfacilitating": 5870,
      "Ġpreserving": 5871,
      "ov": 5872,
      "Ġtraditions": 5873,
      "fig": 5874,
      "remember": 5875,
      "Ġburden": 5876,
      "Ġyell": 5877,
      "Ġkitchen": 5878,
      "ourage": 5879,
      "Ġdivor": 5880,
      "Ġwidely": 5881,
      "Ġraw": 5882,
      "vest": 5883,
      "Ġnic": 5884,
      "Ġvacation": 5885,
      "Ġneural": 5886,
      "Ġliver": 5887,
      "Ġnuances": 5888,
      "ss": 5889,
      "Ġbasis": 5890,
      "car": 5891,
      "Ġpurposes": 5892,
      "Ġdear": 5893,
      "Ġproviders": 5894,
      "Ġcompleting": 5895,
      "Ġsuppose": 5896,
      "Ġoccasion": 5897,
      "Ġconducted": 5898,
      "Ġregional": 5899,
      "imens": 5900,
      "Ġchecking": 5901,
      "Ġintegrity": 5902,
      "ga": 5903,
      "Ġlying": 5904,
      "Ġlocated": 5905,
      "Ġkinds": 5906,
      "Ġdaughter": 5907,
      "Ġbirds": 5908,
      "Ġmanaged": 5909,
      "Ġlesson": 5910,
      "Ġobesity": 5911,
      "Ġcarrying": 5912,
      "Ġparticipating": 5913,
      "Ġspatial": 5914,
      "angle": 5915,
      "Ġstrange": 5916,
      "Ġcompr": 5917,
      "Ġbasics": 5918,
      "Ġelectronic": 5919,
      "Ġwinter": 5920,
      "Ġremark": 5921,
      "22": 5922,
      "Ġpainful": 5923,
      "rates": 5924,
      "Ġangle": 5925,
      "aria": 5926,
      "Ġpts": 5927,
      "Ġpharm": 5928,
      "Ġadjustments": 5929,
      "Ġconfirm": 5930,
      "Ġnonetheless": 5931,
      "Ġcomparing": 5932,
      "depth": 5933,
      "Ġshowed": 5934,
      "oli": 5935,
      "Ġcontrolled": 5936,
      "Ġnevertheless": 5937,
      "Ġconvin": 5938,
      "Ġbing": 5939,
      "Ġtick": 5940,
      "Ġash": 5941,
      "Ġpresented": 5942,
      "ube": 5943,
      "Ġreligion": 5944,
      "Ġaes": 5945,
      "Ġguarant": 5946,
      "Ġabsorb": 5947,
      "Ġstatistics": 5948,
      "Ġcolleagues": 5949,
      "Ġcats": 5950,
      "Ġsubtle": 5951,
      "Ġvulnerable": 5952,
      "Ġdifficulty": 5953,
      "vision": 5954,
      "Ġmaximize": 5955,
      "apy": 5956,
      "Ġarticles": 5957,
      "connected": 5958,
      "Ġâ": 5959,
      "Ġexplicit": 5960,
      "Ġdegrees": 5961,
      "Ġimpossible": 5962,
      "erved": 5963,
      "Ġbrown": 5964,
      "Ġjer": 5965,
      "Ġreject": 5966,
      "mar": 5967,
      "Ġnamed": 5968,
      "Ġacts": 5969,
      "Ġpace": 5970,
      "que": 5971,
      "point": 5972,
      "Ġmakeup": 5973,
      "Ġeconomics": 5974,
      "Ġplayer": 5975,
      "ugh": 5976,
      "any": 5977,
      "Ġcontrolling": 5978,
      "Ġconsume": 5979,
      "Ġ60": 5980,
      "isions": 5981,
      "Ġcompl": 5982,
      "Ġptsd": 5983,
      "ilty": 5984,
      "Ġexplo": 5985,
      "empt": 5986,
      "board": 5987,
      "Ġreceived": 5988,
      "Ġsurvival": 5989,
      "Ġincredibly": 5990,
      "Ġcake": 5991,
      "Ġdisag": 5992,
      "Ġcompat": 5993,
      "iforn": 5994,
      "Ġweren": 5995,
      "Ġfiber": 5996,
      "Ġsen": 5997,
      "Ġgonna": 5998,
      "acer": 5999,
      "Ġsafely": 6000,
      "2016": 6001,
      "Ġpurchase": 6002,
      "Ġdenotes": 6003,
      "17": 6004,
      "Ġintensity": 6005,
      "Ġsubstance": 6006,
      "Ġcreation": 6007,
      "Ġrelaxed": 6008,
      "Ġpit": 6009,
      "Ġindigenous": 6010,
      "Ġsites": 6011,
      "Ġsocio": 6012,
      "Ġconnecting": 6013,
      "$,": 6014,
      "Ġhesitate": 6015,
      "Ġteams": 6016,
      "Ġcities": 6017,
      "Ġportion": 6018,
      "cific": 6019,
      "sem": 6020,
      "Ġopening": 6021,
      "Ġphenomenon": 6022,
      "cil": 6023,
      "Ġsmile": 6024,
      "Ġoffered": 6025,
      "iment": 6026,
      "Ġprotecting": 6027,
      "Ġsed": 6028,
      "Ġracial": 6029,
      "vert": 6030,
      "Ġaddiction": 6031,
      "Ġvel": 6032,
      "Ġoverweight": 6033,
      "Ġgluc": 6034,
      "Ġincluded": 6035,
      "Ġpiv": 6036,
      "Ġreform": 6037,
      "Ġmaximum": 6038,
      "Ġsubt": 6039,
      "Ġsusp": 6040,
      "mas": 6041,
      "iday": 6042,
      "Ġmoisture": 6043,
      "Ġorient": 6044,
      "agers": 6045,
      "Ġsession": 6046,
      "Ġbol": 6047,
      "Ġtoler": 6048,
      "Ġfan": 6049,
      "Ġunlike": 6050,
      "Ġwit": 6051,
      "Ġbought": 6052,
      "Ġbarely": 6053,
      "Ġconsists": 6054,
      "Ġshad": 6055,
      "Ġassert": 6056,
      "Ġhousing": 6057,
      "Ġconstitutes": 6058,
      "Ġbringing": 6059,
      "Ġadopting": 6060,
      "Ġfeature": 6061,
      "Ġnecessarily": 6062,
      "Ġeverywhere": 6063,
      "Ġlegisl": 6064,
      "Ġwebsite": 6065,
      "Ġdemonstrated": 6066,
      "ug": 6067,
      "Ġscenario": 6068,
      "Ġstimul": 6069,
      "Ġexistence": 6070,
      "Ġwindow": 6071,
      "Ġcalculate": 6072,
      "Ġgut": 6073,
      "acerb": 6074,
      "Ġsir": 6075,
      "Ġfocuses": 6076,
      "Ġstruggles": 6077,
      "Ġwet": 6078,
      "Ġguilty": 6079,
      "Ġorgans": 6080,
      "Ġexacerb": 6081,
      "Ġfats": 6082,
      "Ġfucking": 6083,
      "scale": 6084,
      "Ġequilibrium": 6085,
      "Ġclassic": 6086,
      "Ġcombined": 6087,
      "Ġcars": 6088,
      "capes": 6089,
      "Ġalignment": 6090,
      "ersonal": 6091,
      "Ġcardiovascular": 6092,
      "Ġrecall": 6093,
      "Ġafrican": 6094,
      "Ġinterrupt": 6095,
      "Ġemployment": 6096,
      "Ġcollaborative": 6097,
      "Ġshel": 6098,
      "Ġpresident": 6099,
      "house": 6100,
      "Ġrespiratory": 6101,
      "Ġgift": 6102,
      "Ġfunctioning": 6103,
      "Ġchinese": 6104,
      "ĠĠĠ": 6105,
      "ifornia": 6106,
      "Ġstretch": 6107,
      "Ġcombat": 6108,
      "arency": 6109,
      "Ġrequest": 6110,
      "Ġversion": 6111,
      "Ġnone": 6112,
      "Ġattitudes": 6113,
      "Ġmixed": 6114,
      "Ġinvent": 6115,
      "Ġwisdom": 6116,
      "Ġtoys": 6117,
      "elet": 6118,
      "Ġinnovations": 6119,
      "Ġcovid": 6120,
      "Ġtackle": 6121,
      "Ġauthority": 6122,
      "Ġwarrant": 6123,
      "Ġecological": 6124,
      "Ġvirtual": 6125,
      "Ġchurch": 6126,
      "Ġbread": 6127,
      "Ġshoulders": 6128,
      "Ġdistingu": 6129,
      "Ġdomain": 6130,
      "eline": 6131,
      "rations": 6132,
      "Ġwaking": 6133,
      "Ġvideos": 6134,
      "Ġawful": 6135,
      "Ġtransitions": 6136,
      "Ġexhausted": 6137,
      "Ġjack": 6138,
      "Ġinclusive": 6139,
      "Ġchrom": 6140,
      "Ġcalls": 6141,
      "gging": 6142,
      "Ġlanguages": 6143,
      "mark": 6144,
      "Ġtransmission": 6145,
      "Ġmrs": 6146,
      "Ġcoverage": 6147,
      "Ġrelate": 6148,
      "Ġgrapp": 6149,
      "Ġscene": 6150,
      "rum": 6151,
      "cium": 6152,
      "Ġpets": 6153,
      "Ġaccessible": 6154,
      "Ġstressful": 6155,
      "era": 6156,
      "Ġmilitary": 6157,
      "Ġven": 6158,
      "ella": 6159,
      "Ġgrew": 6160,
      "Ġparad": 6161,
      "Ġcontroversies": 6162,
      "Ġdensity": 6163,
      "Ġrecover": 6164,
      "Ġloves": 6165,
      "ka": 6166,
      "Ġappropriately": 6167,
      "ught": 6168,
      "Ġcompelling": 6169,
      "Ġwestern": 6170,
      "Ġdistractions": 6171,
      "Ġsnacks": 6172,
      "Ġtast": 6173,
      "Ġabstract": 6174,
      "Ġnegoti": 6175,
      "Ġequitable": 6176,
      "Ġhem": 6177,
      "Ġlibrary": 6178,
      "Ġdish": 6179,
      "Ġpathways": 6180,
      "Ġconsumers": 6181,
      "Ġduration": 6182,
      "Ġpreval": 6183,
      "Ġnation": 6184,
      "Ġtransparency": 6185,
      "roid": 6186,
      "Ġuncover": 6187,
      "Ġrepresenting": 6188,
      "Ġselling": 6189,
      "Ġadmit": 6190,
      "Ġpul": 6191,
      "Ġgrown": 6192,
      "Ġepis": 6193,
      "Ġempow": 6194,
      "stood": 6195,
      "ault": 6196,
      "Ġfeeding": 6197,
      "Ġinspired": 6198,
      "iat": 6199,
      "Ġpresents": 6200,
      "Ġmeanwhile": 6201,
      "Ġneither": 6202,
      "Ġmotor": 6203,
      "Ġauthors": 6204,
      "Ġprevents": 6205,
      "Ġexplanations": 6206,
      "Ġecosystems": 6207,
      "Ġdestro": 6208,
      "Ġtargets": 6209,
      "Ġantibiot": 6210,
      "Ġgaps": 6211,
      "conf": 6212,
      "Ġintim": 6213,
      "Ġreflecting": 6214,
      "Ġpose": 6215,
      "Ġcomplicated": 6216,
      "Ġhier": 6217,
      "Ġnurt": 6218,
      "Ġwalks": 6219,
      "Ġkin": 6220,
      "stream": 6221,
      "Ġentities": 6222,
      "isp": 6223,
      "Ġwebsites": 6224,
      "23": 6225,
      "Ġ--": 6226,
      "ara": 6227,
      "Ġcurve": 6228,
      "Ġinn": 6229,
      "Ġsomed": 6230,
      "Ġfacts": 6231,
      "Ġagents": 6232,
      "Ġfinance": 6233,
      "'''": 6234,
      "Ġscar": 6235,
      "throughout": 6236,
      "ulin": 6237,
      "Ġreasoning": 6238,
      "Ġpositively": 6239,
      "rogen": 6240,
      "Ġvoices": 6241,
      "gent": 6242,
      "Ġcalifornia": 6243,
      "sch": 6244,
      "Ġscales": 6245,
      "Ġaccompan": 6246,
      "Ġinstruction": 6247,
      "Ġnumer": 6248,
      "Ġgest": 6249,
      "Ġjew": 6250,
      "Ġbrainstorm": 6251,
      "Ġvess": 6252,
      "Ġoperating": 6253,
      "Ġsequence": 6254,
      "Ġcul": 6255,
      "sub": 6256,
      "Ġprospect": 6257,
      "âĢ¢": 6258,
      "2019": 6259,
      "Ġnurs": 6260,
      "Ġnuclear": 6261,
      "mind": 6262,
      "Ġdiscoveries": 6263,
      "Ġreass": 6264,
      "Ġrepair": 6265,
      "Ġborrow": 6266,
      "Ġpool": 6267,
      "amins": 6268,
      "Ġquantities": 6269,
      "iest": 6270,
      "Ġate": 6271,
      "Ġexpansion": 6272,
      "Ġmarriage": 6273,
      "Ġattempt": 6274,
      "Ġsought": 6275,
      "medi": 6276,
      "Ġsomeday": 6277,
      "Ġspiritual": 6278,
      "Ġcompeting": 6279,
      "ester": 6280,
      "Ġcounterpart": 6281,
      "Ġapps": 6282,
      "Ġsubs": 6283,
      "Ġindependence": 6284,
      "Ġfamous": 6285,
      "Ġmillions": 6286,
      "Ġaside": 6287,
      "Ġpig": 6288,
      "Ġking": 6289,
      "Ġgrace": 6290,
      "Ġforgot": 6291,
      "points": 6292,
      "Ġseconds": 6293,
      "Ġversus": 6294,
      "Ġraised": 6295,
      "Ġcas": 6296,
      "Ġnations": 6297,
      "osal": 6298,
      "Ġages": 6299,
      "Ġvocab": 6300,
      "erson": 6301,
      "arter": 6302,
      "working": 6303,
      "Ġweekly": 6304,
      "Ġjudge": 6305,
      "Ġcomplications": 6306,
      "Ġpursuing": 6307,
      "Ġmax": 6308,
      "Ġexcuse": 6309,
      "Ġhierarch": 6310,
      "Ġequipped": 6311,
      "Ġexposed": 6312,
      "Ġachievements": 6313,
      "Ġinterplay": 6314,
      "Ġsmith": 6315,
      "Ġdrawn": 6316,
      "Ġinviting": 6317,
      "Ġdisagree": 6318,
      "appro": 6319,
      "Ġgovernance": 6320,
      "Ġconven": 6321,
      "Ġemer": 6322,
      "Ġexercising": 6323,
      "Ġfilm": 6324,
      "lin": 6325,
      "Ġquantity": 6326,
      "Ġlocations": 6327,
      "Ġcong": 6328,
      "Ġperception": 6329,
      "Ġunhealthy": 6330,
      "regular": 6331,
      "Ġtoy": 6332,
      "exp": 6333,
      "Ġtraffic": 6334,
      "Ġconclusions": 6335,
      "Ġabsolute": 6336,
      "Ġvig": 6337,
      "Ġintersection": 6338,
      "Ġquantitative": 6339,
      "Ġclaims": 6340,
      "____": 6341,
      "Ġinspiration": 6342,
      "Ġdecor": 6343,
      "Ġlabel": 6344,
      "Ġinvestigate": 6345,
      "Ġerror": 6346,
      "Ġcomment": 6347,
      "level": 6348,
      "Ġcro": 6349,
      "Ġobservation": 6350,
      "Ġ198": 6351,
      "Ġmechanical": 6352,
      "Ġcalcium": 6353,
      "Ġsmoothly": 6354,
      "Ġmemor": 6355,
      "Ġprecision": 6356,
      "Ġromantic": 6357,
      "Ġuniverse": 6358,
      "Ġreh": 6359,
      "Ġintegration": 6360,
      "Ġbind": 6361,
      "ete": 6362,
      "Ġstudied": 6363,
      "Ġproducing": 6364,
      "Ġjoining": 6365,
      "tw": 6366,
      "Ġexpend": 6367,
      "Ġdesire": 6368,
      "mber": 6369,
      "math": 6370,
      "Ġchain": 6371,
      "Ġmethodologies": 6372,
      "Ġremarkable": 6373,
      "Ġdisappointed": 6374,
      "ef": 6375,
      "Ġstroke": 6376,
      "Ġattractive": 6377,
      "Ġsold": 6378,
      "Ġappreciated": 6379,
      "Ġimpressive": 6380,
      "Ġdetection": 6381,
      "Ġescape": 6382,
      "Ġallevi": 6383,
      "Ġbehavioral": 6384,
      "Ġperpet": 6385,
      "ulary": 6386,
      "Ġyields": 6387,
      "Ġcrying": 6388,
      "Ġgenetics": 6389,
      "Ġsecondary": 6390,
      "Ġsolar": 6391,
      "Ġdivision": 6392,
      "Ġmilest": 6393,
      "Ġsunlight": 6394,
      "Ġpregnant": 6395,
      "Ġdiagnostic": 6396,
      "Ġshoulder": 6397,
      "Ġbacterial": 6398,
      "Ġopenly": 6399,
      "14": 6400,
      "mi": 6401,
      "Ġdust": 6402,
      "Ġalter": 6403,
      "Ġpersonally": 6404,
      ");": 6405,
      "Ġwalls": 6406,
      "Ġplanned": 6407,
      "rote": 6408,
      "aceted": 6409,
      "Ġhomes": 6410,
      "pat": 6411,
      "Ġtradition": 6412,
      "Ġapartment": 6413,
      "Ġrevealing": 6414,
      "Ġcomplain": 6415,
      "Ġcute": 6416,
      "aware": 6417,
      "Ġdoubt": 6418,
      "ada": 6419,
      "Ġcrisis": 6420,
      "Ġcritics": 6421,
      "Ġmobility": 6422,
      "dra": 6423,
      "Ġstere": 6424,
      "Ġhadn": 6425,
      "Ġemerge": 6426,
      "Ġvan": 6427,
      "olester": 6428,
      "Ġtrigger": 6429,
      "Ġinterdisciplinary": 6430,
      "Ġneighb": 6431,
      "Ġafrica": 6432,
      "Ġimmig": 6433,
      "which": 6434,
      "Ġartistic": 6435,
      "ads": 6436,
      "Ġdatasets": 6437,
      "Ġcriticism": 6438,
      "Ġmetal": 6439,
      "mates": 6440,
      "Ġgenerating": 6441,
      "Ġcurric": 6442,
      "Ġfly": 6443,
      "ancies": 6444,
      "Ġforest": 6445,
      "Ġnutrient": 6446,
      "Ġpin": 6447,
      "aster": 6448,
      "Ġappears": 6449,
      "Ġworkshops": 6450,
      "Ġabnorm": 6451,
      "Ġidentities": 6452,
      "rows": 6453,
      "mps": 6454,
      "Ġmort": 6455,
      "Ġcomments": 6456,
      "Ġprocedure": 6457,
      "Ġbird": 6458,
      "Ġthroat": 6459,
      "Ġampl": 6460,
      "Ġflavor": 6461,
      "Ġgramm": 6462,
      "Ġfirms": 6463,
      "Ġsavings": 6464,
      "Ġoptimize": 6465,
      "Ġsuscept": 6466,
      "Ġcultivating": 6467,
      "Ġclients": 6468,
      "Ġarts": 6469,
      "Ġhormones": 6470,
      "Ġappointment": 6471,
      "Ġcarbo": 6472,
      "Ġmulti": 6473,
      "ĠâĪ": 6474,
      "adv": 6475,
      "Ġveloc": 6476,
      "Ġmission": 6477,
      "ette": 6478,
      "Ġvictim": 6479,
      "Ġrecy": 6480,
      "Ġletter": 6481,
      "Ġdecrease": 6482,
      "fall": 6483,
      "Ġdocuments": 6484,
      "olesterol": 6485,
      "Ġdilig": 6486,
      "Ġanat": 6487,
      "Ġgaining": 6488,
      "Ġham": 6489,
      "Ġtransact": 6490,
      "Ġcher": 6491,
      "Ġaudiences": 6492,
      "Ġsamples": 6493,
      "Ġmanufacture": 6494,
      "Ġsurvey": 6495,
      "Ġfluctuations": 6496,
      "Ġperceived": 6497,
      "Ġvocabulary": 6498,
      "Ġextend": 6499,
      "Ġaccidents": 6500,
      "Ġruined": 6501,
      "Ġhund": 6502,
      "Ġvibrant": 6503,
      "Ġrepet": 6504,
      "Ġsummar": 6505,
      "Ġprocessed": 6506,
      "Ġguideline": 6507,
      "olar": 6508,
      "Ġrect": 6509,
      "Ġvitamins": 6510,
      "Ġpray": 6511,
      "eterm": 6512,
      "Ġpra": 6513,
      "Ġempty": 6514,
      "Ġengineers": 6515,
      "Ġpolyn": 6516,
      "Ġconsuming": 6517,
      "Ġtalented": 6518,
      "Ġinterviews": 6519,
      "Ġgrains": 6520,
      "Ġknee": 6521,
      "Ġtour": 6522,
      "Ġrelevance": 6523,
      "Ġcycles": 6524,
      "Ġillnesses": 6525,
      "nings": 6526,
      "Ġdent": 6527,
      "Ġentertain": 6528,
      "Ġlinguistic": 6529,
      "Ġglucose": 6530,
      "Ġlifting": 6531,
      "Ġmomentum": 6532,
      "Ġprotective": 6533,
      "Ġfrequent": 6534,
      "Ġsomehow": 6535,
      "Ġdisability": 6536,
      "Ġcellular": 6537,
      "Ġcaring": 6538,
      "Ġcountless": 6539,
      "Ġprotocol": 6540,
      "Ġfurn": 6541,
      "Ġrepresentations": 6542,
      "Ġbabe": 6543,
      "Ġoutdoors": 6544,
      "Ġcircle": 6545,
      "Ġmultifaceted": 6546,
      "Ġthousands": 6547,
      "Ġspots": 6548,
      "Ġlandscapes": 6549,
      "Ġadaptation": 6550,
      "Ġepid": 6551,
      "Ġdut": 6552,
      "rix": 6553,
      "Ġhormone": 6554,
      "iform": 6555,
      "Ġopposite": 6556,
      "Ġobviously": 6557,
      "Ġneglect": 6558,
      "Ġminimum": 6559,
      "Ġbegins": 6560,
      "Ġhundred": 6561,
      "Ġarrangements": 6562,
      "Ġhiv": 6563,
      "Ġadvancing": 6564,
      "pes": 6565,
      "Ġshaped": 6566,
      "Ġsupplement": 6567,
      "Ġcompounds": 6568,
      "Ġleader": 6569,
      "16": 6570,
      "Ġneurolog": 6571,
      "Ġadvocate": 6572,
      "Ġsurprised": 6573,
      "Ġcort": 6574,
      "uming": 6575,
      "urable": 6576,
      "Ġgrass": 6577,
      "Ġtrick": 6578,
      "Ġfailed": 6579,
      "uit": 6580,
      "Ġidentification": 6581,
      "dr": 6582,
      "Ġversat": 6583,
      "Ġseven": 6584,
      "ritis": 6585,
      "cur": 6586,
      "Ġcholesterol": 6587,
      "elfare": 6588,
      "Ġpolynomial": 6589,
      "Ġequival": 6590,
      "Ġclassroom": 6591,
      "Ġunfair": 6592,
      "Ġreporting": 6593,
      "Ġparameters": 6594,
      "Ġfinger": 6595,
      "Ġdelicate": 6596,
      "omes": 6597,
      "Ġdivide": 6598,
      "Ġinstitutional": 6599,
      "Ġflexible": 6600,
      "Ġemail": 6601,
      "Ġangles": 6602,
      "Ġrice": 6603,
      "Ġlever": 6604,
      "abil": 6605,
      "order": 6606,
      "Ġprovider": 6607,
      "Ġsib": 6608,
      "ceptions": 6609,
      "Ġlungs": 6610,
      "Ġavenues": 6611,
      "ocy": 6612,
      "Ġhorizont": 6613,
      "ressing": 6614,
      "Ġfriendships": 6615,
      "Ġrefining": 6616,
      "Ġpowers": 6617,
      "Ġsum": 6618,
      "Ġentrepreneurs": 6619,
      "Ġwelfare": 6620,
      "Ġmanager": 6621,
      "Ġevening": 6622,
      "Ġseat": 6623,
      "Ġdemocra": 6624,
      "Ġperman": 6625,
      "Ġhero": 6626,
      "ket": 6627,
      "Ġassessing": 6628,
      "Ġextract": 6629,
      "Ġkick": 6630,
      "uding": 6631,
      "Ġequality": 6632,
      "Ġmusical": 6633,
      "2015": 6634,
      "Ġexpressed": 6635,
      "Ġproficiency": 6636,
      "Ġpand": 6637,
      "Ġscrew": 6638,
      "Ġadap": 6639,
      "Ġstrang": 6640,
      "Ġformed": 6641,
      "Ġlip": 6642,
      "Ġsubstances": 6643,
      "Ġlung": 6644,
      "Ġindicates": 6645,
      "Ġcommercial": 6646,
      "ama": 6647,
      "{\\": 6648,
      "Ġwanna": 6649,
      "Ġutility": 6650,
      "Ġmode": 6651,
      "unt": 6652,
      "Ġmarked": 6653,
      "Ġprofit": 6654,
      "Ġhorri": 6655,
      "Ġfingers": 6656,
      "Ġcreatures": 6657,
      "Ġlighting": 6658,
      "brid": 6659,
      "Ġyouth": 6660,
      "Ġclick": 6661,
      "hma": 6662,
      "Ġbalancing": 6663,
      "Ġ:)": 6664,
      "Ġaspir": 6665,
      "sim": 6666,
      "function": 6667,
      "Ġparallel": 6668,
      "Ġembarrassed": 6669,
      "Ġcow": 6670,
      "Ġcounsel": 6671,
      "Ġcurricul": 6672,
      "Ġlens": 6673,
      "Ġtrial": 6674,
      "Ġcovered": 6675,
      "Ġintricacies": 6676,
      "Ġpersistence": 6677,
      "Ġshop": 6678,
      "gy": 6679,
      "Ġintention": 6680,
      "Ġconducting": 6681,
      "Ġinsect": 6682,
      "Ġoblig": 6683,
      "otypes": 6684,
      "bel": 6685,
      "Ġmetic": 6686,
      "Ġhasn": 6687,
      "Ġ90": 6688,
      "Ġmyster": 6689,
      "Ġnormally": 6690,
      "Ġsinging": 6691,
      "Ġdomestic": 6692,
      "Ġnecessitating": 6693,
      "Ġbills": 6694,
      "Ġgrocery": 6695,
      "Ġbear": 6696,
      "Ġapple": 6697,
      "Ġcoeff": 6698,
      "Ġsensory": 6699,
      "Ġannoying": 6700,
      "Ġfewer": 6701,
      "vely": 6702,
      "Ġassume": 6703,
      "Ġcart": 6704,
      "ulture": 6705,
      "Ġminds": 6706,
      "Ġraising": 6707,
      "iac": 6708,
      "iers": 6709,
      "itors": 6710,
      "worth": 6711,
      "Ġcalculations": 6712,
      "oning": 6713,
      "Ġethnic": 6714,
      "employ": 6715,
      "Ġconversely": 6716,
      "Ġclarity": 6717,
      "ales": 6718,
      "Ġpolar": 6719,
      "Ġera": 6720,
      "consider": 6721,
      "erals": 6722,
      "Ġsongs": 6723,
      "24": 6724,
      "Ġharsh": 6725,
      "Ġsuns": 6726,
      "Ġ21": 6727,
      "Ġsport": 6728,
      "Ġorigin": 6729,
      "Ġmarine": 6730,
      "Ġsky": 6731,
      "Ġratio": 6732,
      "lam": 6733,
      "Ġreached": 6734,
      "lastly": 6735,
      "ille": 6736,
      "figure": 6737,
      "Ġrepeated": 6738,
      "Ġ>": 6739,
      "Ġmanageable": 6740,
      "lock": 6741,
      "Ġgenerated": 6742,
      "Ġmetabolism": 6743,
      "aced": 6744,
      "sa": 6745,
      "Ġconsiderable": 6746,
      "Ġseam": 6747,
      "Ġque": 6748,
      "Ġbutter": 6749,
      "Ġpassing": 6750,
      "Ġhimself": 6751,
      "âĢĿ.": 6752,
      "Ġshall": 6753,
      "Ġvisible": 6754,
      "Ġprogressive": 6755,
      "Ġencouragement": 6756,
      "Ġfantastic": 6757,
      "oma": 6758,
      "Ġdescript": 6759,
      "Ġdeliber": 6760,
      "Ġriver": 6761,
      "liance": 6762,
      "Ġpivotal": 6763,
      "Ġmarginalized": 6764,
      "Ġtab": 6765,
      "taking": 6766,
      "Ġhall": 6767,
      "Ġinstitute": 6768,
      "Ġprolong": 6769,
      "gl": 6770,
      "mo": 6771,
      "Ġconcerned": 6772,
      "Ġallocate": 6773,
      "Ġbelieved": 6774,
      "Ġmap": 6775,
      "Ġexpon": 6776,
      "Ġneutral": 6777,
      "guidelines": 6778,
      "mod": 6779,
      "Ġelectrons": 6780,
      "icacy": 6781,
      "Ġworrying": 6782,
      "Ġrewards": 6783,
      "aters": 6784,
      "irty": 6785,
      "Ġnause": 6786,
      "Ġsurprise": 6787,
      "[[": 6788,
      "Ġtaxes": 6789,
      "Ġhip": 6790,
      "Ġgast": 6791,
      "Ġterrit": 6792,
      "Ġautonomy": 6793,
      "Ġreferred": 6794,
      "}\\": 6795,
      "Ġbackgrounds": 6796,
      "Ġcheese": 6797,
      "Ġadministration": 6798,
      "Ġimpressed": 6799,
      "Ġhers": 6800,
      "70": 6801,
      "Ġappet": 6802,
      "Ġunderstood": 6803,
      "Ġcooperation": 6804,
      "Ġrelying": 6805,
      "Ġmi": 6806,
      "Ġeu": 6807,
      "Ġagencies": 6808,
      "Ġgal": 6809,
      "Ġinsulin": 6810,
      "Ġoperation": 6811,
      "Ġcha": 6812,
      "pling": 6813,
      "Ġrespectful": 6814,
      "Ġfunding": 6815,
      "orph": 6816,
      "Ġconsent": 6817,
      "Ġbattle": 6818,
      "Ġagreement": 6819,
      "Ġample": 6820,
      "Ġmand": 6821,
      "Ġpressures": 6822,
      "Ġmastery": 6823,
      "Ġshut": 6824,
      "lements": 6825,
      "Ġrefresh": 6826,
      "Ġintroducing": 6827,
      "Ġsatur": 6828,
      "ĠÃ": 6829,
      "Ġfundament": 6830,
      "Ġdrain": 6831,
      "Ġexcite": 6832,
      "Ġtargeting": 6833,
      "Ġsug": 6834,
      "Ġnan": 6835,
      "Ġshower": 6836,
      "Ġadaptive": 6837,
      "Ġhunger": 6838,
      "Ġpuzz": 6839,
      "Ġfaces": 6840,
      "Ġlights": 6841,
      "Ġassessments": 6842,
      "building": 6843,
      "Ġendeavors": 6844,
      "Ġscratch": 6845,
      "Ġgoog": 6846,
      "Ġconcrete": 6847,
      "Ġvaccine": 6848,
      "Ġjoints": 6849,
      "Ġtaught": 6850,
      "Ġfabric": 6851,
      "Ġgi": 6852,
      "Ġflight": 6853,
      "Ġdescribed": 6854,
      "ata": 6855,
      "Ġadoles": 6856,
      "Ġintegral": 6857,
      "Ġestimate": 6858,
      "Ġpure": 6859,
      "Ġlastly": 6860,
      "Ġachieved": 6861,
      "Ġassets": 6862,
      "Ġcoast": 6863,
      "Ġrecognized": 6864,
      "Ġviews": 6865,
      "Ġinvestments": 6866,
      "aund": 6867,
      "Ġlaboratory": 6868,
      "Ġaqu": 6869,
      "Ġblank": 6870,
      "Ġpsychiat": 6871,
      "Ġstands": 6872,
      "inting": 6873,
      "!\"": 6874,
      "Ġorganize": 6875,
      "Ġparamount": 6876,
      "oids": 6877,
      "Ġcalming": 6878,
      "Ġmachines": 6879,
      "Ġnerves": 6880,
      "Ġarchitecture": 6881,
      "Ġflash": 6882,
      "Ġinterconnected": 6883,
      "2014": 6884,
      "ament": 6885,
      "Ġmitigate": 6886,
      "Ġshirt": 6887,
      "Ġion": 6888,
      "ysis": 6889,
      "Ġequally": 6890,
      "Ġindex": 6891,
      "Ġinterpretations": 6892,
      "Ġfrench": 6893,
      "Ġautism": 6894,
      "Ġdefinitions": 6895,
      "ĠâĢ¢": 6896,
      "Ġbedtime": 6897,
      "oxide": 6898,
      "Ġinfected": 6899,
      "Ġreceiving": 6900,
      "Ġspine": 6901,
      "atoes": 6902,
      "Ġvector": 6903,
      "Ġtypical": 6904,
      "Ġgrounded": 6905,
      "Ġwitness": 6906,
      "Ġlaunch": 6907,
      "Ġasthma": 6908,
      "Ġfigured": 6909,
      "riad": 6910,
      "Ġincons": 6911,
      "roll": 6912,
      "Ġadaptability": 6913,
      "Ġmechanism": 6914,
      "Ġpreserve": 6915,
      "Ġtemporary": 6916,
      "Ġtreats": 6917,
      "Ġburning": 6918,
      "Ġgap": 6919,
      "nia": 6920,
      "Ġcant": 6921,
      "Ġbuck": 6922,
      "Ġpreferred": 6923,
      "Ġmentors": 6924,
      "Ġkidney": 6925,
      "Ġviruses": 6926,
      "Ġdriven": 6927,
      "Ġcryst": 6928,
      "Ġwindows": 6929,
      "Ġcoordination": 6930,
      "Ġenforce": 6931,
      "Ġheter": 6932,
      "Ġreveals": 6933,
      "Ġregim": 6934,
      "Ġclubs": 6935,
      "Ġweights": 6936,
      "Ġcomplim": 6937,
      "Ġatoms": 6938,
      "Ġfol": 6939,
      "Ġinspiring": 6940,
      "Ġkiss": 6941,
      "Ġcord": 6942,
      "Ġfal": 6943,
      "aaaa": 6944,
      "Ġguiding": 6945,
      "Ġtraject": 6946,
      "Ġmanufacturing": 6947,
      "ogene": 6948,
      "Ġ23": 6949,
      "Ġaging": 6950,
      "Ġwoke": 6951,
      "Ġms": 6952,
      "Ġmodifications": 6953,
      "Ġrend": 6954,
      "$.": 6955,
      "Ġpriorities": 6956,
      "state": 6957,
      "sin": 6958,
      "Ġcentered": 6959,
      "Ġmagical": 6960,
      "Ġsteady": 6961,
      "Ġdifficulties": 6962,
      "Ġclosed": 6963,
      "Ġnewly": 6964,
      "Ġrecon": 6965,
      "Ġnecessitates": 6966,
      "Ġfulfilling": 6967,
      "begin": 6968,
      "Ġinstruments": 6969,
      "etric": 6970,
      "Ġcalling": 6971,
      "Ġinstrument": 6972,
      "Ġpossibly": 6973,
      "Ġstoryt": 6974,
      "Ġfile": 6975,
      "100": 6976,
      "Ġcoat": 6977,
      "owing": 6978,
      "oted": 6979,
      "Ġloving": 6980,
      "rets": 6981,
      "Ġorganizing": 6982,
      "Ġforth": 6983,
      "Ġdamaged": 6984,
      "Ġpromotion": 6985,
      "********": 6986,
      "Ġbio": 6987,
      "Ġstring": 6988,
      "Ġsymm": 6989,
      "Ġminerals": 6990,
      "Ġpresenting": 6991,
      "Ġdemocratic": 6992,
      "yah": 6993,
      "outs": 6994,
      "Ġthrive": 6995,
      "Ġspring": 6996,
      "Ġindo": 6997,
      "Ġcategory": 6998,
      "Ġfunds": 6999,
      "Ġtor": 7000,
      "Ġphosph": 7001,
      "even": 7002,
      "enth": 7003,
      "Ġcompromise": 7004,
      "Ġradio": 7005,
      "Ġsnow": 7006,
      "Ġmiles": 7007,
      "Ġimproves": 7008,
      "Ġreflects": 7009,
      "Ġtactics": 7010,
      "Ġcounterparts": 7011,
      "Ġbay": 7012,
      "imm": 7013,
      "Ġmyriad": 7014,
      "Ġpurchasing": 7015,
      "Ġstrengthens": 7016,
      "Ġappeal": 7017,
      "Ġsmoke": 7018,
      "vr": 7019,
      "Ġfoundational": 7020,
      "Ġfacilities": 7021,
      "Ġfeas": 7022,
      "Ġcapturing": 7023,
      "inity": 7024,
      "Ġknees": 7025,
      "Ġhighest": 7026,
      "Ġcrush": 7027,
      "Ġ\\*": 7028,
      "Ġcarbohyd": 7029,
      "Ġpeer": 7030,
      "Ġtransmit": 7031,
      "Ġaccepted": 7032,
      "Ġworkouts": 7033,
      "born": 7034,
      "ye": 7035,
      "Ġstores": 7036,
      "Ġbeneath": 7037,
      "Ġannual": 7038,
      "kin": 7039,
      "Ġspr": 7040,
      "Ġartist": 7041,
      "uros": 7042,
      "Ġsacri": 7043,
      "Ġcough": 7044,
      "Ġsurvive": 7045,
      "Ġmoderate": 7046,
      "Ġintegrated": 7047,
      "Ġignore": 7048,
      "Ġobserving": 7049,
      "Ġweap": 7050,
      "Ġeliminate": 7051,
      "Ġunderm": 7052,
      "Ġposts": 7053,
      "orter": 7054,
      "ulf": 7055,
      "Ġcampaigns": 7056,
      "thritis": 7057,
      "Ġcategor": 7058,
      "Ġdisparate": 7059,
      "olit": 7060,
      "Ġvertical": 7061,
      "Ġsacrif": 7062,
      "ailing": 7063,
      "Ġcombine": 7064,
      "ffe": 7065,
      "Ġ<": 7066,
      "Ġapologize": 7067,
      "anged": 7068,
      "Ġplot": 7069,
      "Ġpy": 7070,
      "Ġ80": 7071,
      "teries": 7072,
      "alian": 7073,
      "Ġrelat": 7074,
      "Ġcriminal": 7075,
      "orge": 7076,
      "Ġapplicable": 7077,
      "Ġmagic": 7078,
      "omb": 7079,
      "ept": 7080,
      "Ġcrafting": 7081,
      "Ġinstant": 7082,
      "urations": 7083,
      "Ġdan": 7084,
      "Ġplaced": 7085,
      "otherapy": 7086,
      "Ġkit": 7087,
      "Ġdepth": 7088,
      "son": 7089,
      "Ġparas": 7090,
      "eph": 7091,
      "Ġuniversal": 7092,
      "Ġdiag": 7093,
      "nel": 7094,
      "rine": 7095,
      "rog": 7096,
      "13": 7097,
      "Ġ`": 7098,
      "?!": 7099,
      "Ġive": 7100,
      "ford": 7101,
      "Ġscore": 7102,
      "unting": 7103,
      "Ġserved": 7104,
      "abstract": 7105,
      "Ġtexture": 7106,
      "Ġring": 7107,
      "ccer": 7108,
      "Ġperformed": 7109,
      "Ġpron": 7110,
      "ek": 7111,
      "main": 7112,
      "Ġoffic": 7113,
      "reed": 7114,
      "Ġdisturb": 7115,
      "Ġadoption": 7116,
      "Ġlaz": 7117,
      "alia": 7118,
      "Ġreviews": 7119,
      "Ġmetabolic": 7120,
      "Ġdimin": 7121,
      "Ġadverse": 7122,
      "Ġspanning": 7123,
      "Ġtells": 7124,
      "Ġempower": 7125,
      "Ġexcitement": 7126,
      "Ġmembrane": 7127,
      "Ġske": 7128,
      "Ġentry": 7129,
      "Ġsystemic": 7130,
      "aming": 7131,
      "Ġcorporate": 7132,
      "Ġpicking": 7133,
      "Ġfeat": 7134,
      "Ġtitle": 7135,
      "Ġcrash": 7136,
      "iled": 7137,
      "alk": 7138,
      "Ġtele": 7139,
      "Ġestimated": 7140,
      "Ġsubstitut": 7141,
      "ait": 7142,
      "Ġinfluential": 7143,
      "Ġmainly": 7144,
      "Ġinterpersonal": 7145,
      "Ġeducators": 7146,
      "Ġrecur": 7147,
      "ril": 7148,
      "chap": 7149,
      "tains": 7150,
      "Ġremoving": 7151,
      "Ġextent": 7152,
      "Ġmart": 7153,
      "Ġdominant": 7154,
      "Ġestimates": 7155,
      "Ġrooted": 7156,
      "Ġstars": 7157,
      "Ġcompound": 7158,
      "Ġaggressive": 7159,
      "Ġconfidently": 7160,
      "Ġridic": 7161,
      "Ġinhib": 7162,
      "Ġtrash": 7163,
      "Ġmanipulation": 7164,
      "ho": 7165,
      "Ġunable": 7166,
      "yed": 7167,
      "Ġcrime": 7168,
      "Ġtheme": 7169,
      "Ġideally": 7170,
      "Ġshock": 7171,
      "Ġgear": 7172,
      "Ġfluids": 7173,
      "Ġinches": 7174,
      "Ġdecay": 7175,
      "Ġnegatively": 7176,
      "Ġcompleted": 7177,
      "Ġblame": 7178,
      "Ġallocation": 7179,
      "Ġgun": 7180,
      "Ġmeetings": 7181,
      "Ġbags": 7182,
      "Ġnich": 7183,
      "Ġmajority": 7184,
      "ipp": 7185,
      "Ġsoccer": 7186,
      "Ġsentence": 7187,
      "Ġrabb": 7188,
      "Ġcomputing": 7189,
      "iversity": 7190,
      "Ġletters": 7191,
      "Ġstorytelling": 7192,
      "Ġemphasis": 7193,
      "bert": 7194,
      "Ġcaptiv": 7195,
      "Ġsight": 7196,
      "Ġactors": 7197,
      "etime": 7198,
      "Ġphrases": 7199,
      "Ġaccomplished": 7200,
      "minded": 7201,
      "Ġverbal": 7202,
      "Ġyellow": 7203,
      "Ġpromptly": 7204,
      "Ġcater": 7205,
      "Ġmetrics": 7206,
      "Ġlimiting": 7207,
      "Ġnames": 7208,
      "esteem": 7209,
      "imensional": 7210,
      "Ġphysiology": 7211,
      "Ġretention": 7212,
      "Ġwest": 7213,
      "cos": 7214,
      "jud": 7215,
      "Ġcompens": 7216,
      "aret": 7217,
      "Ġinsuff": 7218,
      "Ġrevenue": 7219,
      "Ġhiding": 7220,
      "Ġmicroscop": 7221,
      "))": 7222,
      "Ġfold": 7223,
      "aked": 7224,
      "Ġdiscoura": 7225,
      "Ġoct": 7226,
      "lings": 7227,
      "Ġgoogle": 7228,
      "Ġmeds": 7229,
      "Ġrhythm": 7230,
      "Ġpersonalized": 7231,
      "cre": 7232,
      "Ġincent": 7233,
      "itu": 7234,
      "Ġscan": 7235,
      "Ġadjusting": 7236,
      "Ġmedi": 7237,
      "Ġrevealed": 7238,
      "optional": 7239,
      "Ġhumanity": 7240,
      "cience": 7241,
      "Ġsequences": 7242,
      "Ġdisappear": 7243,
      "Ġarising": 7244,
      "Ġquad": 7245,
      "Ġneuros": 7246,
      "Ġpossibility": 7247,
      "Ġna": 7248,
      "Ġaccessibility": 7249,
      "Ġappetite": 7250,
      "Ġgains": 7251,
      "Ġears": 7252,
      "Ġharmony": 7253,
      "Ġchart": 7254,
      "Ġadhd": 7255,
      "Ġmirror": 7256,
      "Ġcandy": 7257,
      "Ġinspect": 7258,
      "Ġdemanding": 7259,
      "Ġorigins": 7260,
      "Ġpiz": 7261,
      "500": 7262,
      "Ġguests": 7263,
      "Ġspinal": 7264,
      "Ġsuggested": 7265,
      "Ġchea": 7266,
      "Ġintended": 7267,
      "Ġchapters": 7268,
      "Ġdecreased": 7269,
      "Ġgross": 7270,
      "Ġhinder": 7271,
      "cultural": 7272,
      "Ġnutritional": 7273,
      "Ġcaffe": 7274,
      "Ġawake": 7275,
      "elect": 7276,
      "amine": 7277,
      "Ġacquis": 7278,
      "adder": 7279,
      "thern": 7280,
      "Ġtiming": 7281,
      "Ġregression": 7282,
      "Ġkinda": 7283,
      "Ġcards": 7284,
      "omp": 7285,
      "Ġcandidates": 7286,
      "stic": 7287,
      "aneous": 7288,
      "Ġinject": 7289,
      "Ġuniform": 7290,
      "Ġassignments": 7291,
      "Ġsocioeconomic": 7292,
      "effective": 7293,
      "Ġalarm": 7294,
      "Ġspark": 7295,
      "cribed": 7296,
      "cel": 7297,
      "Ġstation": 7298,
      "Ġsciences": 7299,
      "Ġrestrictions": 7300,
      "Ġunemploy": 7301,
      "Ġsurroundings": 7302,
      "Ġformat": 7303,
      "Ġencounters": 7304,
      "Ġchill": 7305,
      "Ġpricing": 7306,
      "Ġtrials": 7307,
      "Ġalleviate": 7308,
      "Ġtransformations": 7309,
      "Ġremote": 7310,
      "she": 7311,
      "Ġbinge": 7312,
      "lu": 7313,
      "Ġwrote": 7314,
      "Ġbasket": 7315,
      "Ġmerely": 7316,
      "Ġaffordable": 7317,
      "Ġregist": 7318,
      "Ġperpetu": 7319,
      "Ġdanger": 7320,
      "Ġfuck": 7321,
      "take": 7322,
      "Ġuk": 7323,
      "Ġloyal": 7324,
      "Ġfinancially": 7325,
      "Ġvessels": 7326,
      "Ġdiscrep": 7327,
      "Ġtub": 7328,
      "Ġlect": 7329,
      "Ġfatty": 7330,
      "Ġrestaurant": 7331,
      "anes": 7332,
      "Ġposes": 7333,
      "Ġnights": 7334,
      "Ġhonesty": 7335,
      "Ġgh": 7336,
      "Ġvolunteer": 7337,
      "word": 7338,
      "Ġforced": 7339,
      "Ġprogression": 7340,
      "Ġdemocracy": 7341,
      "Ġshifting": 7342,
      "Ġsatisfying": 7343,
      "Ġgau": 7344,
      "Ġsore": 7345,
      "Ġcollaborate": 7346,
      "Ġalgebraic": 7347,
      "Ġbridge": 7348,
      "Ġoccasionally": 7349,
      "Ġindia": 7350,
      "Ġheightened": 7351,
      "Ġmexic": 7352,
      "hist": 7353,
      "Ġcopy": 7354,
      "Ġaustr": 7355,
      "eak": 7356,
      "Ġbiom": 7357,
      "heim": 7358,
      "Ġmilestones": 7359,
      "Ġstorm": 7360,
      "rin": 7361,
      "Ġdefense": 7362,
      "Ġformer": 7363,
      "Ġgreek": 7364,
      "Ġber": 7365,
      "Ġelectricity": 7366,
      "Ġruss": 7367,
      "awareness": 7368,
      "Ġvisiting": 7369,
      "Ġentails": 7370,
      "Ġfalls": 7371,
      "writ": 7372,
      "(\\": 7373,
      "Ġenem": 7374,
      "Ġdiver": 7375,
      "Ġtract": 7376,
      "Ġexplaining": 7377,
      "Ġasset": 7378,
      "Ġvariation": 7379,
      "Ġchristmas": 7380,
      "Ġreputable": 7381,
      "Ġwinning": 7382,
      "Ġsurrounded": 7383,
      "Ġfer": 7384,
      "Ġpairs": 7385,
      "Ġherit": 7386,
      "idity": 7387,
      "ading": 7388,
      "Ġwedding": 7389,
      "Ġfurniture": 7390,
      "Ġreleased": 7391,
      "Ġgall": 7392,
      "neys": 7393,
      "197": 7394,
      "Ġshame": 7395,
      "Ġzone": 7396,
      "Ġreproductive": 7397,
      "ica": 7398,
      "Ġbunch": 7399,
      "Ġabsorption": 7400,
      "Ġmanual": 7401,
      "Ġhabitat": 7402,
      "Ġhydrogen": 7403,
      "Ġvelocity": 7404,
      "from": 7405,
      "40": 7406,
      "Ġken": 7407,
      "bell": 7408,
      "Ġnowhere": 7409,
      "Ġbabies": 7410,
      "Ġshedding": 7411,
      "moreover": 7412,
      "Ġhorrible": 7413,
      "iah": 7414,
      "Ġcollected": 7415,
      "Ġsignaling": 7416,
      "Ġorientation": 7417,
      "Ġallergies": 7418,
      "Ġmatrix": 7419,
      "Ġintrigu": 7420,
      "Ġflows": 7421,
      "Ġmeasured": 7422,
      "ora": 7423,
      "Ġ22": 7424,
      "Ġarguing": 7425,
      "uous": 7426,
      "Ġinteractive": 7427,
      "Ġol": 7428,
      "Ġnuts": 7429,
      "Ġcatching": 7430,
      "Ġcaut": 7431,
      "Ġderiv": 7432,
      "Ġfunctionality": 7433,
      "Ġsymptom": 7434,
      "breaking": 7435,
      "Ġblind": 7436,
      "encing": 7437,
      "Ġsooner": 7438,
      "odynam": 7439,
      "Ġobese": 7440,
      "Ġgreatly": 7441,
      "Ġsettle": 7442,
      "Ġoptimization": 7443,
      "Ġintentions": 7444,
      "next": 7445,
      "respect": 7446,
      "nson": 7447,
      "Ġnotion": 7448,
      "Ġreliability": 7449,
      "Ġleveraging": 7450,
      "Ġger": 7451,
      "Ġsaved": 7452,
      "Ġdiets": 7453,
      "fol": 7454,
      "Ġcredibility": 7455,
      "Ġimmers": 7456,
      "Ġlymph": 7457,
      "Ġjapanese": 7458,
      "Ġoutline": 7459,
      "Ġspeakers": 7460,
      "Ġcure": 7461,
      "Ġsynthesis": 7462,
      "Ġencountered": 7463,
      "aint": 7464,
      "Ġcontrols": 7465,
      "Ġefficacy": 7466,
      "Ġschedules": 7467,
      "Ġinvestigating": 7468,
      "Ġselected": 7469,
      "Ġcav": 7470,
      "Ġprotocols": 7471,
      "ung": 7472,
      "Ġinfectious": 7473,
      "Ġcohes": 7474,
      "Ġcollecting": 7475,
      "Ġgraduate": 7476,
      "Ġdece": 7477,
      "Ġconfused": 7478,
      "Ġshowc": 7479,
      "Ġsafegu": 7480,
      "Ġmacro": 7481,
      "Ġevolutionary": 7482,
      "cr": 7483,
      "Ġfears": 7484,
      "Ġdisput": 7485,
      "Ġbetray": 7486,
      "Ġlatin": 7487,
      "Ġdistress": 7488,
      "chapter": 7489,
      "}}": 7490,
      "Ġhide": 7491,
      "2020": 7492,
      "Ġproport": 7493,
      "Ġattempts": 7494,
      "Ġindependently": 7495,
      "Ġpayment": 7496,
      "Ġunknown": 7497,
      "Ġsecondly": 7498,
      "Ġterrific": 7499,
      "Ġcaution": 7500,
      "bi": 7501,
      "Ġdrag": 7502,
      "'.": 7503,
      "Ġmarch": 7504,
      "Ġreasonable": 7505,
      "Ġadventures": 7506,
      "icy": 7507,
      "ull": 7508,
      "ediat": 7509,
      "reting": 7510,
      "Ġreturns": 7511,
      "yroid": 7512,
      "emical": 7513,
      "Ġstretching": 7514,
      "Ġparadig": 7515,
      "Ġcovering": 7516,
      "Ġinher": 7517,
      "Ġpump": 7518,
      "2013": 7519,
      "Ġedges": 7520,
      "bur": 7521,
      "itor": 7522,
      "Ġimportantly": 7523,
      "conscious": 7524,
      "Ġmassive": 7525,
      "Ġphysiological": 7526,
      "Ġow": 7527,
      "Ġguard": 7528,
      "Ġmes": 7529,
      "cm": 7530,
      "Ġanatomy": 7531,
      "Ġinconsist": 7532,
      "Ġchecked": 7533,
      "Ġbri": 7534,
      "Ġoils": 7535,
      "Ġscope": 7536,
      "have": 7537,
      "crit": 7538,
      "ission": 7539,
      "Ġwors": 7540,
      "Ġpaths": 7541,
      "Ġadherence": 7542,
      "Ġconfron": 7543,
      "Ġnas": 7544,
      "Ġintu": 7545,
      "*,": 7546,
      "Ġemployee": 7547,
      "Ġiv": 7548,
      "comm": 7549,
      "Ġ70": 7550,
      "Ġmich": 7551,
      "gical": 7552,
      "list": 7553,
      "stone": 7554,
      "Ġintest": 7555,
      "cive": 7556,
      "Ġinsec": 7557,
      "Ġfoundations": 7558,
      "Ġfran": 7559,
      "Ġdecline": 7560,
      "Ġherself": 7561,
      "iasm": 7562,
      "Ġperf": 7563,
      "Ġinfluenced": 7564,
      "Ġlas": 7565,
      "Ġpursuit": 7566,
      "Ġownership": 7567,
      "confidence": 7568,
      "Ġaspirations": 7569,
      "Ġdav": 7570,
      "Ġcomparative": 7571,
      "Ġunwanted": 7572,
      "ositions": 7573,
      "Ġwheel": 7574,
      "Ġpassions": 7575,
      "Ġcounseling": 7576,
      "Ġcautious": 7577,
      "Ġheritage": 7578,
      "Ġcaffeine": 7579,
      "Ġmorph": 7580,
      "Ġembed": 7581,
      "Ġsoap": 7582,
      "Ġwarning": 7583,
      "Ġinvolvement": 7584,
      "Ġadds": 7585,
      "Ġbaking": 7586,
      "Ġintermedi": 7587,
      "Ġtraveling": 7588,
      "acing": 7589,
      "ience": 7590,
      "Ġnumerical": 7591,
      "pled": 7592,
      "Ġindicators": 7593,
      "Ġhydrated": 7594,
      "start": 7595,
      "Ġunp": 7596,
      "Ġattached": 7597,
      "oon": 7598,
      "Ġsuperior": 7599,
      "rec": 7600,
      "Ġbite": 7601,
      "Ġdevelopmental": 7602,
      "Ġseed": 7603,
      "Ġhappier": 7604,
      "Ġholistic": 7605,
      "verbal": 7606,
      "agon": 7607,
      "Ġbrave": 7608,
      "Ġperse": 7609,
      "Ġblog": 7610,
      "Ġos": 7611,
      "Ġcot": 7612,
      "Ġcritic": 7613,
      "Ġacute": 7614,
      "Ġrevis": 7615,
      "dd": 7616,
      "Ġbottle": 7617,
      "ricular": 7618,
      "Ġisolation": 7619,
      "Ġregulate": 7620,
      "================================": 7621,
      "Ġasy": 7622,
      "rt": 7623,
      "Ġpitch": 7624,
      "Ġcourage": 7625,
      "Ġdriver": 7626,
      "Ġexpenditure": 7627,
      "ĠÏ": 7628,
      "Ġpartnerships": 7629,
      "rooms": 7630,
      "Ġacceptance": 7631,
      "Ġorth": 7632,
      "Ġrib": 7633,
      "Ġnod": 7634,
      "Ġmobile": 7635,
      "Ġobsess": 7636,
      "requ": 7637,
      "Ġcirculation": 7638,
      "Ġattent": 7639,
      "Ġbiod": 7640,
      "nal": 7641,
      "craft": 7642,
      "gly": 7643,
      "Ġagreed": 7644,
      "Ġkilled": 7645,
      "Ġenthusiasm": 7646,
      "str": 7647,
      "hile": 7648,
      "Ġunus": 7649,
      "Ġgum": 7650,
      "Ġvill": 7651,
      "Ġchair": 7652,
      "Ġslope": 7653,
      "Ġelucidate": 7654,
      "Ġcontextual": 7655,
      "Ġcontinuing": 7656,
      "Ġauthenticity": 7657,
      "Ġsle": 7658,
      "Ġbuildings": 7659,
      "Ġfoss": 7660,
      "Ġadvert": 7661,
      "Ġupcoming": 7662,
      "Ġridiculous": 7663,
      "Ġawhile": 7664,
      "dium": 7665,
      "Ġtherapies": 7666,
      "Ġcheating": 7667,
      "inform": 7668,
      "reating": 7669,
      "Ġnails": 7670,
      "check": 7671,
      "Ġtwist": 7672,
      "specific": 7673,
      "Ġconfront": 7674,
      "Ġcharges": 7675,
      "Ġunion": 7676,
      "Ġschedul": 7677,
      "Ġtrend": 7678,
      "Ġcompliance": 7679,
      "Ġgrammar": 7680,
      "Ġsodium": 7681,
      "Ġstruggled": 7682,
      "oken": 7683,
      "Ġdates": 7684,
      "Ġbattery": 7685,
      "ams": 7686,
      "Ġgly": 7687,
      "Ġdelves": 7688,
      "Ġdigestive": 7689,
      "Ġty": 7690,
      "Ġdehyd": 7691,
      "Ġlaid": 7692,
      "Ġrit": 7693,
      "Ġdiscer": 7694,
      "Ġmodes": 7695,
      "Ġscholar": 7696,
      "Ġevenly": 7697,
      "Ġdoors": 7698,
      "Ġviewpoints": 7699,
      "Ġalternatively": 7700,
      "Ġcloth": 7701,
      "Ġsoul": 7702,
      "Ġhitting": 7703,
      "Ġgathering": 7704,
      "Ġinvestors": 7705,
      "Ġindirect": 7706,
      "Ġoutlined": 7707,
      "friendly": 7708,
      "Ġrepresented": 7709,
      "Ġdistin": 7710,
      "Ġdelay": 7711,
      "Ġcommunicating": 7712,
      "Ġhypothesis": 7713,
      "Ġpizza": 7714,
      "Ġcharged": 7715,
      "Ġworries": 7716,
      "ba": 7717,
      "Ġovernight": 7718,
      "Ġpersu": 7719,
      "Ġplane": 7720,
      "Ġremoved": 7721,
      "Ġcombinations": 7722,
      ".'": 7723,
      "Ġsept": 7724,
      "Ġwriter": 7725,
      "Ġsplit": 7726,
      "Ġassociations": 7727,
      "Ġoverlook": 7728,
      "Ġfalse": 7729,
      "Ġantibiotics": 7730,
      "Ġinteracting": 7731,
      "Ġdict": 7732,
      "Ġsket": 7733,
      "icting": 7734,
      "Ġunderstands": 7735,
      "Ġnap": 7736,
      "Ġcomparison": 7737,
      "Ġwherein": 7738,
      "Ġhole": 7739,
      "Ġbleeding": 7740,
      "Ġdiam": 7741,
      "ida": 7742,
      "Ġupdate": 7743,
      "Ġdivided": 7744,
      "iph": 7745,
      "nat": 7746,
      "Ġaids": 7747,
      "Ġfishing": 7748,
      "Ġheadache": 7749,
      "Ġguilt": 7750,
      "Ġaer": 7751,
      "Ġconstitute": 7752,
      "Ġflying": 7753,
      "Ġvalidity": 7754,
      "Ġcorn": 7755,
      "uary": 7756,
      "Ġresidents": 7757,
      "Ġprolonged": 7758,
      "Ġdefect": 7759,
      "bles": 7760,
      "Ġoriginally": 7761,
      "Ġtheorem": 7762,
      "Ġindicating": 7763,
      "Ġflour": 7764,
      "Ġequivalent": 7765,
      "Ġscholarship": 7766,
      "Ġmuse": 7767,
      "Ġattributes": 7768,
      "acent": 7769,
      "Ġoutdoor": 7770,
      "Ġfertil": 7771,
      "develop": 7772,
      "Ġpreference": 7773,
      "Ġitem": 7774,
      "Ġnarrative": 7775,
      "Ġbiodiversity": 7776,
      "struct": 7777,
      "Ġcircles": 7778,
      "Ġretire": 7779,
      "asis": 7780,
      "Ġtong": 7781,
      "Ġatomic": 7782,
      "hea": 7783,
      "Ġlosses": 7784,
      "ĠÂ": 7785,
      "Ġfairly": 7786,
      "Ġpandemic": 7787,
      "Ġcenturies": 7788,
      "Ġneurons": 7789,
      "Ġdecent": 7790,
      "inates": 7791,
      "Ġinstrumental": 7792,
      "Ġappointments": 7793,
      "pract": 7794,
      "Ġplas": 7795,
      "Ġhips": 7796,
      "dri": 7797,
      "Ġadhering": 7798,
      "ictions": 7799,
      "Ġsale": 7800,
      "Ġpert": 7801,
      "Ġlawy": 7802,
      "Ġ28": 7803,
      "Ġ?": 7804,
      "Ġdifferential": 7805,
      "Ġmarks": 7806,
      "Ġharmon": 7807,
      "Ġtrim": 7808,
      "Ġwildlife": 7809,
      "Ġexh": 7810,
      "Ġprogramming": 7811,
      "Ġstriking": 7812,
      "arity": 7813,
      "Ġbc": 7814,
      "Ġcontend": 7815,
      "Ġaligned": 7816,
      "Ġfacilitates": 7817,
      "Ġnutrit": 7818,
      "Ġachievable": 7819,
      "Ġfairness": 7820,
      "etor": 7821,
      "Ġabund": 7822,
      "obic": 7823,
      "Ġvalidation": 7824,
      "Ġgravity": 7825,
      "charge": 7826,
      "amiliar": 7827,
      "Ġsegment": 7828,
      "Ġdistributions": 7829,
      "Ġproof": 7830,
      "Ġmathematically": 7831,
      "Ġbathroom": 7832,
      "Ġstun": 7833,
      "aken": 7834,
      "2021": 7835,
      "Ġphotograph": 7836,
      "ogenic": 7837,
      "onin": 7838,
      "ishment": 7839,
      "Ġram": 7840,
      "Ġfailing": 7841,
      "rig": 7842,
      "Ġconcentrations": 7843,
      "Ġafterwards": 7844,
      "Ġfrustration": 7845,
      "Ġkeys": 7846,
      "Ġsupplements": 7847,
      "Ġinvite": 7848,
      "Ġasia": 7849,
      "Ġkg": 7850,
      "Ġleverage": 7851,
      "Ġpok": 7852,
      "Ġconfusion": 7853,
      "erable": 7854,
      "Ġpermanent": 7855,
      "Ġpediat": 7856,
      "forward": 7857,
      "Ġruin": 7858,
      "Ġinsufficient": 7859,
      "Ġlifes": 7860,
      "Ġunderscore": 7861,
      "erent": 7862,
      "Ġcontributed": 7863,
      "zer": 7864,
      "Ġ26": 7865,
      "Ġauto": 7866,
      "Ġacquisition": 7867,
      "Ġdying": 7868,
      "Ġending": 7869,
      "establish": 7870,
      "Ġvag": 7871,
      "Ġquarter": 7872,
      "Ġisland": 7873,
      "select": 7874,
      ")^": 7875,
      "Ġstrike": 7876,
      "met": 7877,
      "Ġoutfit": 7878,
      "Ġseverity": 7879,
      "Ġinterpreting": 7880,
      "Ġvom": 7881,
      "Ġconve": 7882,
      "Ġfet": 7883,
      "Ġprint": 7884,
      "estry": 7885,
      "icted": 7886,
      "Ġtel": 7887,
      "Ġplacing": 7888,
      "Ġperformances": 7889,
      "Ġconsciousness": 7890,
      "Ġrefrain": 7891,
      "Ġexcel": 7892,
      "Ġheadaches": 7893,
      "Ġov": 7894,
      "ogether": 7895,
      "Ġcu": 7896,
      "Ġmaturity": 7897,
      "Ġdelving": 7898,
      "Ġarrive": 7899,
      "heimer": 7900,
      "Ġsla": 7901,
      "asy": 7902,
      "Ġdiffer": 7903,
      "advant": 7904,
      "Ġfinishing": 7905,
      "happy": 7906,
      "Ġrenewable": 7907,
      "ogens": 7908,
      "Ġdistinguish": 7909,
      "Ġisolated": 7910,
      "Ġpaintings": 7911,
      "Ġdiscrepancies": 7912,
      "Ġimbal": 7913,
      "Ġcd": 7914,
      "Ġsending": 7915,
      "Ġdeepen": 7916,
      "Ġviral": 7917,
      "Ġconvert": 7918,
      "Ġconducive": 7919,
      "Ġoccurring": 7920,
      "Ġshares": 7921,
      "Ġfilling": 7922,
      "Ġnutritious": 7923,
      "##": 7924,
      "ema": 7925,
      "Ġruns": 7926,
      "ensus": 7927,
      "Ġoperate": 7928,
      "Ġremoval": 7929,
      "Ġmos": 7930,
      "Ġjumping": 7931,
      "Ġintervals": 7932,
      "Ġlegit": 7933,
      "alysis": 7934,
      "\",": 7935,
      "Ġswelling": 7936,
      "Ġgif": 7937,
      "Ġgroom": 7938,
      "Ġdow": 7939,
      "Ġdesignated": 7940,
      "Ġreci": 7941,
      "Ãł": 7942,
      "don": 7943,
      "itals": 7944,
      "Ġshy": 7945,
      "dimensional": 7946,
      "Ġpropag": 7947,
      "Ġcolonial": 7948,
      "determ": 7949,
      "Ġ(-": 7950,
      "Ġspectrum": 7951,
      "Ġtrained": 7952,
      "Ġsurge": 7953,
      "gm": 7954,
      "Ġ{": 7955,
      "Ġadmire": 7956,
      "ilation": 7957,
      "pha": 7958,
      "Ġchristian": 7959,
      "Ġhazards": 7960,
      "Ġsatisfied": 7961,
      "Ġdw": 7962,
      "Ġrecipes": 7963,
      "Ġspanish": 7964,
      "Ġpil": 7965,
      "Ġdeadlines": 7966,
      "Ġbothering": 7967,
      "Ġpredictions": 7968,
      "Ġoste": 7969,
      "Ġmamm": 7970,
      "Ġperiodically": 7971,
      "Ġjoe": 7972,
      "avoid": 7973,
      "ki": 7974,
      "Ġil": 7975,
      "Ġentering": 7976,
      "Ġconstitu": 7977,
      "Ġdropped": 7978,
      "ander": 7979,
      "Ġaccessories": 7980,
      "Ġclust": 7981,
      "Ġsemin": 7982,
      "Ġlovely": 7983,
      "Ġtends": 7984,
      "Ġpayments": 7985,
      "Ġexecution": 7986,
      "ville": 7987,
      "Ġarmed": 7988,
      "Ġcyt": 7989,
      "Ġdefend": 7990,
      "Ġchlor": 7991,
      "Ġliterary": 7992,
      "tage": 7993,
      "Ġdeaths": 7994,
      "Ġsentences": 7995,
      "Ġadministr": 7996,
      "Ġdismiss": 7997,
      "Ġbillion": 7998,
      "Ġclock": 7999,
      "fits": 8000,
      ")=": 8001,
      ".*": 8002,
      "Ġshorter": 8003,
      "Ġleaf": 8004,
      "athetic": 8005,
      "Ġdefe": 8006,
      "Ġbranches": 8007,
      "Ġemphasizes": 8008,
      "Ġrespectively": 8009,
      "Ġrhetor": 8010,
      "Ġconfigurations": 8011,
      "Ġcomposed": 8012,
      "Ġsimulations": 8013,
      "Ġdistances": 8014,
      "bul": 8015,
      "Ġdetermin": 8016,
      "Ġjur": 8017,
      "Ġbadly": 8018,
      "isons": 8019,
      "Ġloan": 8020,
      "cule": 8021,
      "Ġnail": 8022,
      "Ġexplained": 8023,
      "Ġactivation": 8024,
      "Ġsorts": 8025,
      "Ġdiscount": 8026,
      "Ġsubmit": 8027,
      "Ġjuice": 8028,
      "Ġshelter": 8029,
      "Ġjay": 8030,
      "Ġexemp": 8031,
      "Ġentertainment": 8032,
      "Ġritual": 8033,
      "Ġelucidating": 8034,
      "zen": 8035,
      "Ġmanagers": 8036,
      "Ġworkplace": 8037,
      "Ġachievement": 8038,
      "Ġlazy": 8039,
      "usivity": 8040,
      "win": 8041,
      "Ġanc": 8042,
      "eries": 8043,
      "Ġcontainer": 8044,
      "Ġnurturing": 8045,
      "Ġphoto": 8046,
      "Ġjohnson": 8047,
      "Ġrecipe": 8048,
      "Ġles": 8049,
      "Ġscrutin": 8050,
      "igaret": 8051,
      "Ġbullying": 8052,
      "Ġcompatibility": 8053,
      "Ġzones": 8054,
      "Ġpowder": 8055,
      "kary": 8056,
      "Ġidentical": 8057,
      "Ġadvocacy": 8058,
      "ena": 8059,
      "box": 8060,
      "Ġtangible": 8061,
      "Ġbeans": 8062,
      "Ġfailures": 8063,
      "Ġvet": 8064,
      "Ġdivorce": 8065,
      "Ġsemester": 8066,
      "Ġpeak": 8067,
      "Ġrealizing": 8068,
      "Ġray": 8069,
      "Ġglut": 8070,
      "Ġshell": 8071,
      "Ġlock": 8072,
      "Ġassemb": 8073,
      "zheimer": 8074,
      "Ġeconomies": 8075,
      "hel": 8076,
      "Ġprime": 8077,
      "Ġthread": 8078,
      "Ġresort": 8079,
      "Ġeager": 8080,
      "Ġradical": 8081,
      "Ġreputation": 8082,
      "Ġdairy": 8083,
      "Ġhurting": 8084,
      "pap": 8085,
      "Ġsau": 8086,
      "Ġwise": 8087,
      "Ġcel": 8088,
      "Ġaudio": 8089,
      "Ġaccomplishments": 8090,
      "Ġaccommodate": 8091,
      "Ġfeaturing": 8092,
      "ths": 8093,
      "Ġacquired": 8094,
      "Ġthermal": 8095,
      "Ġfif": 8096,
      "Ġcares": 8097,
      "Ġinqu": 8098,
      "igma": 8099,
      "activity": 8100,
      "Ġresponding": 8101,
      "[^": 8102,
      "break": 8103,
      "Ġexempl": 8104,
      "Ġdepos": 8105,
      "Ġupdated": 8106,
      "Ġambigu": 8107,
      "oked": 8108,
      "Ġqualitative": 8109,
      "Ġundergo": 8110,
      "***": 8111,
      "Ġdegrad": 8112,
      "isely": 8113,
      "Ġliteracy": 8114,
      "Ġscreening": 8115,
      "Ġgenres": 8116,
      "Ġswear": 8117,
      "Ġhence": 8118,
      "Ġjaw": 8119,
      "Ġbritish": 8120,
      "Ġswing": 8121,
      "Ġhorizontal": 8122,
      "Ġappealing": 8123,
      "Ġtumor": 8124,
      "Ġpromises": 8125,
      "Ġparticle": 8126,
      "Ġconversion": 8127,
      "%.": 8128,
      "nes": 8129,
      "exist": 8130,
      "Ġgreenhouse": 8131,
      "icular": 8132,
      "Ġsynthetic": 8133,
      "Ġtested": 8134,
      "Ġvehicle": 8135,
      "Ġtensions": 8136,
      "ett": 8137,
      "lands": 8138,
      "Ġvigil": 8139,
      "Ġshake": 8140,
      "olic": 8141,
      "```": 8142,
      "Ġchromos": 8143,
      "Ġauthorities": 8144,
      "Ġadmirable": 8145,
      "Ġbeings": 8146,
      "Ġprescribed": 8147,
      "Ġactionable": 8148,
      "Ġexpecting": 8149,
      "agog": 8150,
      "Ġ27": 8151,
      "Ġexceed": 8152,
      "depend": 8153,
      "preced": 8154,
      "gely": 8155,
      "Ġdirt": 8156,
      "Ġtextbook": 8157,
      "Ġcomputers": 8158,
      "olf": 8159,
      "Ġlargest": 8160,
      "Ġpicked": 8161,
      "nut": 8162,
      "Ġvehicles": 8163,
      "Ġsoda": 8164,
      "umn": 8165,
      "Ġadj": 8166,
      "Ġdrunk": 8167,
      "Ġdirty": 8168,
      "Ġ(\"": 8169,
      "precedented": 8170,
      "Ġarthritis": 8171,
      "Ġbreaths": 8172,
      "ounce": 8173,
      "Ġroute": 8174,
      "Ġsetbacks": 8175,
      "Ġsymbols": 8176,
      "psy": 8177,
      "Ġdirector": 8178,
      "Ġintegrate": 8179,
      "ham": 8180,
      "ael": 8181,
      "Ġbutton": 8182,
      "bally": 8183,
      "Ġunprecedented": 8184,
      "Ġvocal": 8185,
      "Ġinitiate": 8186,
      "Ġbon": 8187,
      "Ġlikes": 8188,
      "Ġcongress": 8189,
      "Ġsupported": 8190,
      "inson": 8191,
      "Ġriding": 8192,
      "Ġalzheimer": 8193,
      "Ġmigration": 8194,
      "bound": 8195,
      "Ġcamera": 8196,
      "offs": 8197,
      "Ġwine": 8198,
      "Ġling": 8199,
      "Ġenforcement": 8200,
      "Ġstereotypes": 8201,
      "Ġsystematic": 8202,
      "Ġbuilds": 8203,
      "Ġcontamin": 8204,
      "reach": 8205,
      "Ġdesk": 8206,
      "Ġdesper": 8207,
      "Ġunusual": 8208,
      "eta": 8209,
      "fish": 8210,
      "Ġpoison": 8211,
      "Ġreleasing": 8212,
      "ria": 8213,
      "Ġdistant": 8214,
      "Ġjanuary": 8215,
      "2012": 8216,
      "Ġpoetry": 8217,
      "Ġagricultural": 8218,
      "Ġagriculture": 8219,
      "eting": 8220,
      "kward": 8221,
      "Ġfiction": 8222,
      "Ġcookies": 8223,
      "Ġarises": 8224,
      "iox": 8225,
      "Ġseparation": 8226,
      "hum": 8227,
      "income": 8228,
      "Ġclient": 8229,
      "Ġdollars": 8230,
      "Ġrash": 8231,
      "Ġescal": 8232,
      "Ġank": 8233,
      "ours": 8234,
      "Ġkar": 8235,
      "Ġproven": 8236,
      "style": 8237,
      "plant": 8238,
      "Ġashamed": 8239,
      "Ġslept": 8240,
      "Ġpip": 8241,
      "Ġworker": 8242,
      "Ġcosm": 8243,
      "nn": 8244,
      "Ġstraightforward": 8245,
      "Ġrocks": 8246,
      "Ġaband": 8247,
      "Ġrising": 8248,
      "Ġlifetime": 8249,
      "Ġlos": 8250,
      "Ġcath": 8251,
      "insic": 8252,
      "Ġoperational": 8253,
      "Ġprevailing": 8254,
      "Ġcounts": 8255,
      "Ġtu": 8256,
      "elle": 8257,
      "Ġincom": 8258,
      "Ġwrist": 8259,
      "Ġcareers": 8260,
      "Ġsearching": 8261,
      "Ġconfir": 8262,
      "Ġreceptors": 8263,
      "olds": 8264,
      "Ġdaunting": 8265,
      "rob": 8266,
      "Ġsecrets": 8267,
      "Ġhonor": 8268,
      "Ġtan": 8269,
      "Ġbmi": 8270,
      "Ġcontinuously": 8271,
      "Ġsignifies": 8272,
      "Ġdisabilities": 8273,
      "Ġgestures": 8274,
      "Ġembedded": 8275,
      "Ġindisp": 8276,
      "lemm": 8277,
      "Ġoneself": 8278,
      "Ġemergence": 8279,
      "Ġurine": 8280,
      "Ġcleans": 8281,
      "ublic": 8282,
      "Ġpermission": 8283,
      "berg": 8284,
      "Ġicon": 8285,
      "Ġindispens": 8286,
      "Ġportions": 8287,
      "Ġamongst": 8288,
      "Ġgrant": 8289,
      "Ġcoordinate": 8290,
      "Ġimpair": 8291,
      "wa": 8292,
      "Ġbowl": 8293,
      "Ġdelivering": 8294,
      "Ġobtained": 8295,
      "Ġbreed": 8296,
      "Ġmotions": 8297,
      "Ġscrutiny": 8298,
      "Ġconce": 8299,
      "Ġexamined": 8300,
      "stru": 8301,
      "Ġvacu": 8302,
      "Ġacceler": 8303,
      "Ġblast": 8304,
      "lets": 8305,
      "Ġcurriculum": 8306,
      "Ġterrif": 8307,
      "Ġsectors": 8308,
      "Ġdownt": 8309,
      "Ġtemporal": 8310,
      "Ġawkward": 8311,
      "Ġwaters": 8312,
      "Ġaccepting": 8313,
      "Ġcataly": 8314,
      "Ġcooked": 8315,
      "Ġsampling": 8316,
      "Ġverte": 8317,
      "Ġfundamentals": 8318,
      "Ġster": 8319,
      "Ġsector": 8320,
      "Ġadvocating": 8321,
      "Ġsurveys": 8322,
      "Ġgeometry": 8323,
      "Ġpassive": 8324,
      "Ġdatab": 8325,
      "Ġphilosophical": 8326,
      "Ġasian": 8327,
      "Ġprison": 8328,
      "Ġenzymes": 8329,
      "eg": 8330,
      "cor": 8331,
      "ioxid": 8332,
      "opl": 8333,
      "sters": 8334,
      "olves": 8335,
      "ien": 8336,
      "Ġwel": 8337,
      "Ġrestric": 8338,
      "Ġpollut": 8339,
      "Ġpresentations": 8340,
      "Ġlogic": 8341,
      "Ġglasses": 8342,
      "Ġrul": 8343,
      "ographical": 8344,
      "apse": 8345,
      "Ġdigestion": 8346,
      "men": 8347,
      "lif": 8348,
      "Ġexamines": 8349,
      "Ġmatt": 8350,
      "vit": 8351,
      "Ġtables": 8352,
      "Ġinev": 8353,
      "Ġthinks": 8354,
      "stein": 8355,
      "Ġdamp": 8356,
      "Ġcircular": 8357,
      "Ġcarbohydrates": 8358,
      "Ġneeding": 8359,
      "idation": 8360,
      "Ġmortality": 8361,
      "Ġowner": 8362,
      "occ": 8363,
      "Ġlifel": 8364,
      "Ġflavors": 8365,
      "Ġflaw": 8366,
      "Ġdemographic": 8367,
      "Ġhobby": 8368,
      "Ġcheat": 8369,
      "Ġmetaph": 8370,
      "Ġlogical": 8371,
      "omnia": 8372,
      "Ġstone": 8373,
      "Ġmim": 8374,
      "Ġofficials": 8375,
      "Ġsegments": 8376,
      "rence": 8377,
      "Ġbelly": 8378,
      "Ġsurgical": 8379,
      "Ġtowel": 8380,
      "Ġpm": 8381,
      "Ġtransc": 8382,
      "Ġscri": 8383,
      "Ġexplicitly": 8384,
      "Ġhypoth": 8385,
      "Ġperceptions": 8386,
      "icles": 8387,
      "Ġinitiative": 8388,
      "Ġgroceries": 8389,
      "Ġwriters": 8390,
      "Ġjunk": 8391,
      "Ġrapport": 8392,
      "Ġbudd": 8393,
      "Ġresolve": 8394,
      "Ġnetworking": 8395,
      "Ġindispensable": 8396,
      "Ġouter": 8397,
      "Ġresonate": 8398,
      "Ġantioxid": 8399,
      "Ġinterval": 8400,
      "Ġmixt": 8401,
      "Ġagent": 8402,
      "Ġdamn": 8403,
      "Ġstored": 8404,
      "Ġvulnerability": 8405,
      "Ġadolesc": 8406,
      "Ġagreements": 8407,
      "wood": 8408,
      "fts": 8409,
      "Ġmodule": 8410,
      "Ġpercentage": 8411,
      "Ġdrives": 8412,
      "Ġscores": 8413,
      "ĠÃĹ": 8414,
      "Ġprivile": 8415,
      "ston": 8416,
      "Ġprofiles": 8417,
      "Ġcustoms": 8418,
      "2010": 8419,
      "Ġrelie": 8420,
      "Ġboat": 8421,
      "Ġpian": 8422,
      "Ġcuts": 8423,
      "Ġmisunderstand": 8424,
      "Ġstabil": 8425,
      "Ġremed": 8426,
      "inator": 8427,
      "Ġmaps": 8428,
      "Ġhumor": 8429,
      "ills": 8430,
      "Ġarchae": 8431,
      "Ġmask": 8432,
      "Ġmeets": 8433,
      "Ġpod": 8434,
      "Ġafterno": 8435,
      "Ġheads": 8436,
      "',": 8437,
      "Ġfinances": 8438,
      "Ġraises": 8439,
      "Ġdevast": 8440,
      "Ġdramatic": 8441,
      "Ġphysician": 8442,
      "Ġcham": 8443,
      "bar": 8444,
      "Ġsuits": 8445,
      "Ġadopted": 8446,
      "Ġdisplace": 8447,
      "Ġmur": 8448,
      "Ġelevated": 8449,
      "Ġcoupled": 8450,
      "romagn": 8451,
      "etary": 8452,
      "Ġanticipate": 8453,
      "dp": 8454,
      "Ġlegislation": 8455,
      "Ġtransformative": 8456,
      "Ġseeks": 8457,
      "Ġhybrid": 8458,
      "Ġfibers": 8459,
      "Ġbranch": 8460,
      "Ġdescription": 8461,
      "Ġopened": 8462,
      "Ġara": 8463,
      "Ġbriefly": 8464,
      "Ġrarely": 8465,
      "her": 8466,
      "Ġanalog": 8467,
      "semble": 8468,
      "draw": 8469,
      "Ġrotation": 8470,
      "Ġranges": 8471,
      "Ġvegg": 8472,
      "Ġlargely": 8473,
      "Ġsenior": 8474,
      "Ġobligations": 8475,
      "bility": 8476,
      "rating": 8477,
      "Ġreferences": 8478,
      "wich": 8479,
      "bed": 8480,
      "Ġpositivity": 8481,
      "ju": 8482,
      "Ġvisits": 8483,
      "Ġbelonging": 8484,
      "Ġdilemm": 8485,
      "Ġgradual": 8486,
      "eared": 8487,
      "Ġlemon": 8488,
      "Ġapples": 8489,
      "Ġpriority": 8490,
      "Ġassault": 8491,
      "Ġindian": 8492,
      "Ġjuris": 8493,
      "Ġtouching": 8494,
      "Ġinventory": 8495,
      "Ġconcise": 8496,
      "Ġvote": 8497,
      "Ġtolerance": 8498,
      "Ġevolve": 8499,
      "Ġcovers": 8500,
      "port": 8501,
      "Ġcm": 8502,
      "Ġphases": 8503,
      "Ġmanner": 8504,
      "Ġskept": 8505,
      "Ġmature": 8506,
      "Ġprioritizing": 8507,
      "Ġlaund": 8508,
      "Ġ45": 8509,
      "Ġclassmates": 8510,
      "Ġneurological": 8511,
      "Ġclinic": 8512,
      "Ġpays": 8513,
      "Ġsoup": 8514,
      "Ġevolved": 8515,
      "ĠpokÃ©": 8516,
      "Ġlighter": 8517,
      "nea": 8518,
      "Ġtid": 8519,
      "Ġpartial": 8520,
      "Ġupdates": 8521,
      "Ġintriguing": 8522,
      "Ġretain": 8523,
      "your": 8524,
      "Ġportfol": 8525,
      "Ġroughly": 8526,
      "Ġvisually": 8527,
      "Ġrelies": 8528,
      "Ġsweat": 8529,
      "oe": 8530,
      "Ġtherapists": 8531,
      "books": 8532,
      "Ġsafeguard": 8533,
      "Ġdumb": 8534,
      "Ġaugust": 8535,
      "Ġbreakthrough": 8536,
      "Ġdiagnose": 8537,
      "Ġposits": 8538,
      "Ġmoisturi": 8539,
      "Ġthrowing": 8540,
      "Ġlad": 8541,
      "Ġcycling": 8542,
      "Ġstructured": 8543,
      "Ġfilter": 8544,
      "Ġspeaker": 8545,
      "Ġcompletion": 8546,
      "Ġbrains": 8547,
      "Ġquitting": 8548,
      "45": 8549,
      "Ġrural": 8550,
      "Ġaffirm": 8551,
      "Ġnausea": 8552,
      "Ġunhappy": 8553,
      "gged": 8554,
      "Ġtimely": 8555,
      "Ġcloud": 8556,
      "Ġdescribing": 8557,
      "vin": 8558,
      "Ġpride": 8559,
      "rary": 8560,
      "Ġcandidate": 8561,
      "ateral": 8562,
      "Ġdeciding": 8563,
      "Ġah": 8564,
      "Ġmenu": 8565,
      "Ġcaptivating": 8566,
      "call": 8567,
      "aya": 8568,
      "Ġspont": 8569,
      "Ġscript": 8570,
      "Ġdar": 8571,
      "ested": 8572,
      "Ġlips": 8573,
      "Ġcarbs": 8574,
      "bling": 8575,
      "Ġcanada": 8576,
      "Ġinclusivity": 8577,
      "Ġmultiplication": 8578,
      "Ġgloves": 8579,
      "emia": 8580,
      "Ġcouch": 8581,
      "gence": 8582,
      "Ġfest": 8583,
      "Ġattain": 8584,
      "Ġvisualization": 8585,
      "Ġ197": 8586,
      "Ġrow": 8587,
      "Ġtraumatic": 8588,
      "Ġdegradation": 8589,
      "Ġbrushing": 8590,
      "Ġimposed": 8591,
      "Ġcoal": 8592,
      "Ġcognition": 8593,
      "Ġlig": 8594,
      "Ġadvis": 8595,
      "ola": 8596,
      "Ġstems": 8597,
      "âĪĴ": 8598,
      "Ġcab": 8599,
      "align": 8600,
      "Ġja": 8601,
      "Ġsadness": 8602,
      "Ġathletes": 8603,
      "mr": 8604,
      "Ġexpanded": 8605,
      "Ġflag": 8606,
      "olitical": 8607,
      "Ġguit": 8608,
      "Ġtreas": 8609,
      "Ġstimulate": 8610,
      "Ġjaz": 8611,
      "?âĢĿ": 8612,
      "ounced": 8613,
      "Ġfees": 8614,
      "Ġchecks": 8615,
      "Ġsiblings": 8616,
      "Ġextant": 8617,
      "Ġstayed": 8618,
      "Ġschemes": 8619,
      "Ġunemployment": 8620,
      "Ġpound": 8621,
      "Ġbatt": 8622,
      "Ġmitigating": 8623,
      "Ġdevi": 8624,
      "Ġcomplementary": 8625,
      "Ġmisunderstandings": 8626,
      "Ġthom": 8627,
      "196": 8628,
      "Ġspreading": 8629,
      "Ġaddressed": 8630,
      "Ġmonthly": 8631,
      "Ġloop": 8632,
      "Ġclassification": 8633,
      "oster": 8634,
      "2011": 8635,
      "Ġpanel": 8636,
      "Ġangel": 8637,
      "fulness": 8638,
      "rot": 8639,
      "Ġabdom": 8640,
      "Ġpants": 8641,
      "Ġ500": 8642,
      "Ġequals": 8643,
      "Ġwire": 8644,
      "Ġtoes": 8645,
      "Ġdiarr": 8646,
      "Ġgradi": 8647,
      "omics": 8648,
      "Ġgauge": 8649,
      "Ġcin": 8650,
      "Ġcodes": 8651,
      "Ġpropose": 8652,
      "Ġgerman": 8653,
      "Ġhopeless": 8654,
      "Ġvaries": 8655,
      "Ġvalued": 8656,
      "Ġafternoon": 8657,
      "Ġballs": 8658,
      "Ġaesthetic": 8659,
      "Ġscream": 8660,
      "Ġstrengthening": 8661,
      "Ġmotivations": 8662,
      "Ġessentially": 8663,
      "Ġcasual": 8664,
      "Ġofficer": 8665,
      "ysical": 8666,
      "Ġencompasses": 8667,
      "Ġtapestry": 8668,
      "Ġdioxide": 8669,
      "Ġdesires": 8670,
      "Ġdependent": 8671,
      "Ġdebris": 8672,
      "Ġpursuits": 8673,
      "Ġvolunteering": 8674,
      "Ġbasketball": 8675,
      "ogenesis": 8676,
      "Ġodd": 8677,
      "acts": 8678,
      "Ġmiserable": 8679,
      "Ġdividing": 8680,
      "Ġgeometric": 8681,
      "Ġclimbing": 8682,
      "Ġpages": 8683,
      "Ġskilled": 8684,
      "Ġgroundbreaking": 8685,
      "Ġeleg": 8686,
      "Ġpedagog": 8687,
      "Ġamend": 8688,
      "Ġessence": 8689,
      "Ġvert": 8690,
      "choose": 8691,
      "Ġdisadvant": 8692,
      "Ġimper": 8693,
      "contro": 8694,
      "Ġdivers": 8695,
      "Ġgardening": 8696,
      "gia": 8697,
      "Ġlonge": 8698,
      "Ġsandwich": 8699,
      "Ġharnessing": 8700,
      "Ġdesigners": 8701,
      "Ġbust": 8702,
      "Ġlifelong": 8703,
      "itarian": 8704,
      "Ġgrief": 8705,
      "Ġaggreg": 8706,
      "Ġexams": 8707,
      "Ġexperimentation": 8708,
      "Ġwalked": 8709,
      "Ġnin": 8710,
      "Ġcommitments": 8711,
      "inking": 8712,
      "Ġdisgust": 8713,
      "Ġvaccines": 8714,
      "Ġclarify": 8715,
      "Ġspray": 8716,
      "Ġunint": 8717,
      "Ġhabitats": 8718,
      "falls": 8719,
      "arks": 8720,
      "ometric": 8721,
      "field": 8722,
      "yes": 8723,
      ".).": 8724,
      "Ġ35": 8725,
      "Ġcompromising": 8726,
      "commun": 8727,
      "Ġell": 8728,
      "Ġoverly": 8729,
      "Ġimplemented": 8730,
      "bf": 8731,
      "Ġtongue": 8732,
      "Ġlongevity": 8733,
      "Ġcigaret": 8734,
      "Ġtailor": 8735,
      "Ġcurves": 8736,
      "Ġunderpinning": 8737,
      "Ġkilling": 8738,
      "Ġnitrogen": 8739,
      "Ġmary": 8740,
      "Ġprofile": 8741,
      "Ġexponential": 8742,
      ")$": 8743,
      "Ġsuccesses": 8744,
      "phone": 8745,
      "Ġratios": 8746,
      "Ġowing": 8747,
      "Ã¡": 8748,
      "Ġmold": 8749,
      "amination": 8750,
      "Ġfacult": 8751,
      "Ġgrandma": 8752,
      "Ġguarantee": 8753,
      "eu": 8754,
      "unct": 8755,
      "Ġwip": 8756,
      "Ġthyroid": 8757,
      "Ġcleaner": 8758,
      "Ġbonding": 8759,
      "Ġprotected": 8760,
      "Ġmanipulate": 8761,
      "Ġconsensus": 8762,
      "Ġversatile": 8763,
      "Ġelig": 8764,
      "Ġblend": 8765,
      "Ġtricks": 8766,
      "Ġhospitals": 8767,
      "Ġelb": 8768,
      "Ġprosper": 8769,
      "onia": 8770,
      "Ġquestioning": 8771,
      "Ġsustained": 8772,
      "Ġrude": 8773,
      "iki": 8774,
      "Ġaspiring": 8775,
      "Ġsof": 8776,
      "Ġgrie": 8777,
      "ober": 8778,
      "Ġkore": 8779,
      "Ġroof": 8780,
      "Ġjewel": 8781,
      "Ġpreced": 8782,
      "80": 8783,
      "Ġweighing": 8784,
      "Ġconj": 8785,
      "Ġfraction": 8786,
      "Ġnonverbal": 8787,
      "Ġacceptable": 8788,
      "Ġbod": 8789,
      "Ġteens": 8790,
      "Ġinnoc": 8791,
      "ker": 8792,
      "Ġastron": 8793,
      "urse": 8794,
      "Ġjar": 8795,
      "Ġlaughing": 8796,
      "Ġreinforcing": 8797,
      "ott": 8798,
      "Ġovers": 8799,
      "Ġarrest": 8800,
      "hi": 8801,
      "may": 8802,
      "xual": 8803,
      "Ġsafer": 8804,
      "Ġconvenient": 8805,
      "non": 8806,
      "Ġediting": 8807,
      "Ġstopping": 8808,
      "Ġstimuli": 8809,
      "Ġsomebody": 8810,
      "Ġessay": 8811,
      "Ġfeasible": 8812,
      "Ġfinancing": 8813,
      "good": 8814,
      "ears": 8815,
      "ressions": 8816,
      "Ġamino": 8817,
      "Ġinjured": 8818,
      "Ġboys": 8819,
      "asts": 8820,
      "Ġassuming": 8821,
      "wear": 8822,
      "Ġtransactions": 8823,
      "Ġkh": 8824,
      "Ġniche": 8825,
      "also": 8826,
      "Ġfossil": 8827,
      "Ġaesth": 8828,
      "2006": 8829,
      "Ġwarmth": 8830,
      "Ġpositioning": 8831,
      "Ġfemin": 8832,
      "Ġintersect": 8833,
      "Ġqualified": 8834,
      "Ġexecutive": 8835,
      "Ġgrip": 8836,
      "Ġreturning": 8837,
      "iques": 8838,
      "oll": 8839,
      "Ġencompassing": 8840,
      "Ġultimate": 8841,
      "arted": 8842,
      "Ġmuscular": 8843,
      "Ġheterogene": 8844,
      "Ġcollectively": 8845,
      "Ġbrands": 8846,
      "Ġchamp": 8847,
      "Ġunderpinnings": 8848,
      "Ġgases": 8849,
      "duct": 8850,
      "Ġneighbors": 8851,
      "].": 8852,
      "Ġdisaster": 8853,
      "Ġgosh": 8854,
      "Ġmemorable": 8855,
      "linear": 8856,
      "Ġimpression": 8857,
      "Ġvalidate": 8858,
      "Ġhighlighted": 8859,
      "Ġfis": 8860,
      "Ġfits": 8861,
      "Ġconstructing": 8862,
      "Ġions": 8863,
      "Ġprospects": 8864,
      "Ġsensors": 8865,
      "rants": 8866,
      "Ġintimate": 8867,
      "Ġlabels": 8868,
      "Ġjake": 8869,
      "Ġnurse": 8870,
      "Ġproceeding": 8871,
      "ius": 8872,
      "Ġcontents": 8873,
      "Ġfirmly": 8874,
      "Ġabandon": 8875,
      "itory": 8876,
      "Ġdispl": 8877,
      "Ġinsomnia": 8878,
      "Ġconsumed": 8879,
      "irts": 8880,
      "Ġaligns": 8881,
      "Ġincentives": 8882,
      "Ġ2000": 8883,
      "Ġobsc": 8884,
      "Ġcomfortably": 8885,
      "Ġtastes": 8886,
      "lay": 8887,
      "inse": 8888,
      "Ġreliance": 8889,
      "avier": 8890,
      "Ġdiscl": 8891,
      "Ġplacement": 8892,
      "utter": 8893,
      "Ġchains": 8894,
      "umin": 8895,
      "Ġdiscouraged": 8896,
      "Ġaccountable": 8897,
      "Ġdescriptions": 8898,
      "lys": 8899,
      "Ġnumb": 8900,
      "Ġordinary": 8901,
      "Ġsocially": 8902,
      "Ġepisodes": 8903,
      "Ġcub": 8904,
      "Ġfavorites": 8905,
      "Ġprevalence": 8906,
      "Ġrac": 8907,
      "Ġelastic": 8908,
      "curricular": 8909,
      "ran": 8910,
      "Ġsubsequently": 8911,
      "Ġhiring": 8912,
      "Ġstir": 8913,
      "Ġculmin": 8914,
      "Ġperiodic": 8915,
      "Ġabnormal": 8916,
      "Ġhydration": 8917,
      "Ġitaly": 8918,
      "Ġsheet": 8919,
      "Ġdose": 8920,
      "cill": 8921,
      "rospect": 8922,
      "Ġintelligent": 8923,
      "Ġenthusi": 8924,
[...]
